▁xxunk	0
▁xxpad	0
▁xxbos	0
▁xxeos	0
▁xxfld	0
▁xxrep	0
▁xxwrep	0
▁xxup	0
▁xxmaj	0
<unk>	0
▁the	-3.33602
.	-3.37772
,	-3.408
s	-3.57077
▁a	-3.88646
▁and	-3.95929
▁of	-4.05491
▁to	-4.09345
'	-4.16864
▁is	-4.3048
br	-4.37943
<	-4.39558
▁/>	-4.40319
▁in	-4.51243
▁it	-4.61441
▁I	-4.64271
▁that	-4.77062
▁this	-4.88181
▁	-4.89352
t	-4.91908
▁was	-5.07655
ing	-5.14131
▁movie	-5.14657
-	-5.14924
▁with	-5.17486
▁for	-5.26106
▁film	-5.28131
▁as	-5.33783
▁The	-5.42248
ed	-5.43773
▁but	-5.46973
ly	-5.49509
▁on	-5.49708
▁"	-5.52893
▁you	-5.56052
▁be	-5.59442
▁(	-5.60391
▁are	-5.66111
▁have	-5.68381
▁not	-5.69629
"	-5.73711
▁his	-5.76102
▁one	-5.76741
d	-5.77629
▁he	-5.83198
▁who	-5.95159
▁all	-5.95393
▁an	-5.96573
▁by	-5.9661
▁like	-5.98986
▁at	-6.00326
)	-6.01446
▁from	-6.01781
y	-6.02889
▁they	-6.09405
e	-6.12215
▁so	-6.13571
▁has	-6.16056
n	-6.17764
▁It	-6.17869
▁about	-6.18198
▁just	-6.18275
▁out	-6.20973
▁her	-6.21983
▁good	-6.27155
▁or	-6.28467
▁can	-6.28684
▁some	-6.35967
▁more	-6.38956
▁very	-6.40704
!	-6.4084
▁up	-6.41343
▁This	-6.43328
▁would	-6.45085
er	-6.45989
?	-6.46345
▁time	-6.46469
▁see	-6.49561
▁make	-6.49709
▁what	-6.49736
▁there	-6.50568
m	-6.50751
▁had	-6.51323
▁when	-6.52028
▁story	-6.52689
▁me	-6.57552
The	-6.58284
▁were	-6.5876
▁no	-6.58886
▁really	-6.5958
▁which	-6.59592
▁my	-6.62314
▁if	-6.62651
▁their	-6.62705
a	-6.63557
▁only	-6.64761
▁A	-6.65417
▁even	-6.66309
▁she	-6.69258
▁great	-6.71272
▁been	-6.71277
▁than	-6.71904
▁well	-6.72924
I	-6.73346
▁much	-6.7497
▁other	-6.76609
▁bad	-6.76636
...	-6.77981
▁get	-6.78746
▁most	-6.79323
▁do	-6.8258
▁people	-6.83288
re	-6.83526
▁-	-6.8369
▁him	-6.83758
:	-6.8379
▁we	-6.84909
▁will	-6.85727
▁into	-6.86613
▁way	-6.91037
▁could	-6.91969
▁first	-6.92867
▁because	-6.93926
r	-6.95492
▁made	-6.9644
▁character	-6.98437
ve	-6.98817
▁don	-6.98913
▁them	-6.99751
▁how	-7.00819
▁too	-7.01633
▁any	-7.04552
▁two	-7.04832
▁also	-7.0484
▁over	-7.05203
▁characters	-7.05262
in	-7.06186
▁plot	-7.06231
▁think	-7.07082
▁'	-7.07187
▁watch	-7.09597
;	-7.11499
▁did	-7.11511
al	-7.11691
▁i	-7.11715
▁acting	-7.12048
es	-7.12218
i	-7.13632
▁little	-7.13825
▁seen	-7.14435
▁love	-7.14585
▁after	-7.15346
▁movies	-7.15473
▁But	-7.15542
▁And	-7.18171
▁being	-7.18829
▁show	-7.1906
▁never	-7.19322
▁many	-7.195
▁does	-7.21288
▁life	-7.21397
▁off	-7.22587
▁know	-7.22698
▁end	-7.22877
▁ever	-7.23345
▁where	-7.24701
).	-7.24761
▁better	-7.24916
▁should	-7.24918
▁best	-7.25499
▁scene	-7.272
▁go	-7.28198
o	-7.31242
▁films	-7.31477
▁say	-7.31532
▁its	-7.32525
▁scenes	-7.327
▁then	-7.33033
or	-7.33258
▁back	-7.3475
▁There	-7.35557
▁thing	-7.36758
ll	-7.37527
▁He	-7.37537
▁still	-7.37622
▁find	-7.3922
▁give	-7.39538
p	-7.40371
▁your	-7.40718
S	-7.41865
▁In	-7.42008
▁something	-7.42087
A	-7.44999
out	-7.46445
▁didn	-7.48518
▁work	-7.49044
▁such	-7.4942
▁those	-7.49724
▁man	-7.49911
),	-7.50126
▁funny	-7.50356
▁here	-7.50486
▁actors	-7.5145
▁look	-7.5186
▁B	-7.51927
l	-7.51943
▁through	-7.52473
▁un	-7.52722
▁doesn	-7.53442
▁years	-7.5429
▁real	-7.55718
▁cast	-7.56075
▁lot	-7.56248
b	-7.56803
/	-7.57228
▁action	-7.57238
▁S	-7.57617
▁thought	-7.5765
▁If	-7.58579
c	-7.58918
▁before	-7.6038
▁T	-7.61417
g	-7.61603
en	-7.61839
▁watching	-7.62393
▁going	-7.62572
▁director	-7.62843
▁actually	-7.62866
▁around	-7.63501
▁got	-7.6375
▁few	-7.64554
▁while	-7.64595
▁these	-7.65182
on	-7.65206
▁why	-7.67116
h	-7.67963
▁script	-7.68844
te	-7.69165
▁again	-7.69275
▁nothing	-7.69295
▁seems	-7.69312
the	-7.70017
▁quite	-7.70414
▁want	-7.70738
▁though	-7.71259
▁horror	-7.71576
and	-7.71732
▁down	-7.72005
▁part	-7.72063
an	-7.72074
▁guy	-7.72605
▁us	-7.72756
▁same	-7.73077
▁fact	-7.73669
▁between	-7.73854
▁new	-7.74601
▁pretty	-7.7503
th	-7.7519
able	-7.75594
▁whole	-7.75611
▁re	-7.76118
▁b	-7.76164
▁own	-7.76372
▁point	-7.77038
&	-7.77424
ic	-7.77815
▁world	-7.78255
▁every	-7.78628
▁old	-7.78673
▁always	-7.78688
▁feel	-7.7895
▁least	-7.79053
▁take	-7.79817
▁C	-7.79946
se	-7.80126
▁hard	-7.80231
▁interesting	-7.80457
▁another	-7.80655
▁original	-7.80712
▁bit	-7.80732
T	-7.81034
▁long	-7.83139
ar	-7.83325
▁may	-7.8371
▁comedy	-7.83713
▁performance	-7.83901
▁fun	-7.8507
▁right	-7.85089
u	-7.85398
it	-7.85599
▁far	-7.859
▁both	-7.87414
▁saw	-7.87629
▁now	-7.88214
▁things	-7.88243
each	-7.88304
▁enough	-7.88523
▁role	-7.88899
▁She	-7.89122
▁kind	-7.89456
▁since	-7.92113
▁almost	-7.92671
less	-7.92704
▁last	-7.93177
f	-7.93745
ion	-7.93831
▁series	-7.94092
▁come	-7.94388
▁must	-7.94574
▁They	-7.9474
▁done	-7.962
▁am	-7.9627
ra	-7.96757
▁yet	-7.97019
▁times	-7.97735
ous	-7.97959
▁away	-7.99787
▁woman	-8.01033
▁anything	-8.01068
▁P	-8.01232
▁American	-8.01943
▁So	-8.02865
▁2	-8.03004
▁worst	-8.03076
D	-8.03143
▁girl	-8.03451
▁big	-8.03626
▁gets	-8.03855
▁put	-8.03899
▁probably	-8.04158
▁young	-8.04189
▁You	-8.04415
▁found	-8.04688
▁As	-8.05126
▁screen	-8.0519
▁main	-8.05536
▁minutes	-8.05599
▁might	-8.05723
▁course	-8.05736
▁What	-8.06491
C	-8.06691
ness	-8.06707
▁sure	-8.06815
▁anyone	-8.07013
This	-8.0714
est	-8.07187
ur	-8.07239
▁music	-8.07278
man	-8.07768
▁We	-8.0817
▁rather	-8.0844
▁keep	-8.09011
▁F	-8.09159
▁believe	-8.09363
M	-8.09482
as	-8.09873
▁special	-8.09985
le	-8.10268
▁goes	-8.103
▁trying	-8.10525
▁played	-8.11162
▁TV	-8.11324
▁reason	-8.11456
ri	-8.12079
▁different	-8.12372
▁turn	-8.12476
▁That	-8.12522
▁place	-8.13059
ie	-8.13404
▁together	-8.13526
▁family	-8.13545
ir	-8.13866
▁sense	-8.14076
▁book	-8.14219
▁effects	-8.14422
▁D	-8.14813
el	-8.15375
▁E	-8.16682
B	-8.16929
▁de	-8.16943
at	-8.17023
▁shows	-8.17884
ce	-8.17949
▁lead	-8.18242
▁wasn	-8.18383
▁worth	-8.1865
▁actor	-8.18817
▁couple	-8.18884
▁everyone	-8.18904
▁true	-8.19499
▁watched	-8.19573
▁play	-8.19805
(	-8.20487
▁looks	-8.20685
▁DVD	-8.20757
▁let	-8.21198
▁start	-8.22039
▁fan	-8.22389
▁ending	-8.22394
▁set	-8.22551
k	-8.2258
▁looking	-8.22587
▁said	-8.22622
▁idea	-8.22937
▁name	-8.23736
▁everything	-8.23901
ist	-8.24023
It	-8.24471
▁job	-8.24548
▁John	-8.24614
▁once	-8.24986
▁completely	-8.25434
▁camera	-8.25877
us	-8.26259
▁day	-8.26506
▁half	-8.26539
▁our	-8.26665
▁comes	-8.27072
ish	-8.27162
▁during	-8.27199
▁3	-8.27323
▁mind	-8.27463
▁For	-8.27717
▁making	-8.27991
ers	-8.28291
▁having	-8.28507
▁high	-8.28603
".	-8.28936
▁use	-8.29014
▁car	-8.29136
E	-8.29587
▁read	-8.29804
▁boring	-8.29864
▁low	-8.29869
▁audience	-8.30463
▁simply	-8.30547
▁else	-8.3055
▁someone	-8.30643
▁seem	-8.31059
",	-8.31435
▁W	-8.31478
▁money	-8.31933
▁rest	-8.31967
▁especially	-8.32009
▁performances	-8.32268
▁shot	-8.32699
▁production	-8.33365
▁home	-8.33374
▁sex	-8.338
▁10	-8.33845
ity	-8.33901
▁version	-8.34044
▁second	-8.34074
R	-8.34142
▁nice	-8.34341
▁To	-8.3461
▁L	-8.34757
▁awful	-8.34793
▁seeing	-8.34915
▁title	-8.35539
▁style	-8.35569
▁plays	-8.3586
is	-8.36069
▁M	-8.3609
▁excellent	-8.36211
▁O	-8.36239
▁dialogue	-8.36935
P	-8.36975
▁under	-8.36998
▁When	-8.37058
▁budget	-8.37079
▁enjoy	-8.37174
▁expect	-8.37201
▁beautiful	-8.37259
▁used	-8.37368
▁himself	-8.37668
▁terrible	-8.37668
▁short	-8.37671
ry	-8.38503
▁run	-8.38525
--	-8.38819
▁need	-8.38865
▁absolute	-8.39154
▁left	-8.39155
▁night	-8.39277
O	-8.39464
ive	-8.39554
ation	-8.39609
▁along	-8.40333
▁help	-8.41197
▁takes	-8.41233
▁kids	-8.42071
▁attempt	-8.42197
▁line	-8.42253
▁moments	-8.42466
▁poor	-8.42557
il	-8.43096
▁year	-8.43385
▁Hollywood	-8.43768
w	-8.43857
▁hand	-8.44001
▁try	-8.44083
▁women	-8.44541
▁less	-8.44818
ent	-8.44857
▁f	-8.45011
."	-8.45025
▁head	-8.45635
▁One	-8.45736
▁seemed	-8.45843
ies	-8.4593
▁small	-8.45973
▁men	-8.46172
▁later	-8.46208
▁until	-8.46243
up	-8.46416
▁video	-8.46558
▁mean	-8.46707
▁classic	-8.46761
▁No	-8.46896
▁next	-8.46941
▁game	-8.47371
▁heart	-8.47446
ch	-8.48314
to	-8.48353
▁war	-8.48404
▁black	-8.48591
▁wife	-8.48601
um	-8.48682
▁came	-8.48745
la	-8.48753
▁recommend	-8.4891
▁fans	-8.48915
▁Not	-8.49158
▁Well	-8.49548
▁leave	-8.49838
▁--	-8.4985
▁tell	-8.50184
▁truly	-8.50233
▁definite	-8.50234
▁star	-8.50373
▁close	-8.50533
▁drama	-8.50725
▁stupid	-8.51065
▁New	-8.51066
▁loved	-8.51444
am	-8.51617
lo	-8.52103
L	-8.52103
▁bring	-8.52216
▁p	-8.52543
H	-8.52725
▁near	-8.52769
▁itself	-8.52775
▁direction	-8.52785
▁entertaining	-8.5287
not	-8.53265
▁getting	-8.53753
▁understand	-8.54464
▁friends	-8.54552
li	-8.54587
▁particular	-8.54646
▁My	-8.54755
▁full	-8.5515
▁father	-8.55455
un	-8.55486
▁went	-8.55486
▁Bo	-8.55573
▁stars	-8.55664
F	-8.55772
▁entire	-8.55835
im	-8.55878
ther	-8.55984
▁school	-8.56313
▁R	-8.56589
▁person	-8.56824
▁group	-8.57162
▁genre	-8.57162
▁early	-8.57178
▁All	-8.57287
G	-8.57563
▁instead	-8.58063
▁sort	-8.58081
▁felt	-8.58087
▁couldn	-8.58244
▁perfect	-8.58552
▁lives	-8.58912
▁certainly	-8.59176
▁often	-8.59405
▁friend	-8.59405
▁remember	-8.59464
▁three	-8.59558
▁flick	-8.59825
▁playing	-8.59844
▁supposed	-8.6
ro	-8.6009
▁H	-8.60625
ul	-8.60635
▁G	-8.60815
▁wrong	-8.60815
▁extreme	-8.60819
▁After	-8.60911
▁town	-8.6095
▁top	-8.61458
▁given	-8.61543
ne	-8.61569
▁picture	-8.6174
ng	-8.62146
▁1	-8.62443
▁beginning	-8.62694
▁fine	-8.62706
▁death	-8.62719
▁won	-8.62755
▁throughout	-8.62867
▁wanted	-8.62871
son	-8.63142
▁laugh	-8.63222
▁kill	-8.63445
▁live	-8.63547
▁become	-8.6376
▁fight	-8.63929
▁hope	-8.64538
▁either	-8.64655
▁episode	-8.64687
▁house	-8.64802
▁wonderful	-8.65167
▁side	-8.65172
ling	-8.65312
▁chance	-8.65582
▁score	-8.65584
▁however	-8.65675
▁piece	-8.65737
▁guys	-8.6583
ok	-8.66019
ck	-8.6659
▁kid	-8.66718
▁boy	-8.66842
▁lines	-8.67188
z	-8.67371
▁face	-8.67382
▁dark	-8.67387
▁THE	-8.67577
▁daughter	-8.67628
▁perhaps	-8.67628
▁sound	-8.67764
me	-8.67976
ate	-8.68344
▁becomes	-8.68474
▁mother	-8.68554
▁However	-8.68683
▁favorite	-8.69562
▁tries	-8.69573
▁totally	-8.69777
▁viewer	-8.69921
▁ex	-8.70225
▁doing	-8.7033
ad	-8.70343
▁worse	-8.70579
▁child	-8.70584
In	-8.7059
▁art	-8.70684
▁c	-8.70881
▁His	-8.71079
no	-8.71268
ter	-8.71502
▁decent	-8.7161
▁history	-8.71692
▁problem	-8.71918
▁N	-8.72228
▁support	-8.72652
▁against	-8.7271
▁cool	-8.72742
▁waste	-8.73039
▁son	-8.73083
▁voice	-8.73704
▁Mr	-8.73782
▁directed	-8.73843
▁care	-8.73922
2	-8.74103
▁human	-8.74134
▁guess	-8.7415
▁co	-8.74244
▁At	-8.74351
ting	-8.74549
▁quality	-8.7479
▁Why	-8.7491
ta	-8.75309
▁K	-8.75445
▁cinema	-8.75814
▁children	-8.75844
▁several	-8.75846
▁stuff	-8.75846
▁matter	-8.76274
sh	-8.76737
▁turns	-8.76801
▁example	-8.76931
▁case	-8.76952
▁order	-8.77024
ism	-8.77288
▁myself	-8.78042
▁While	-8.78185
▁although	-8.78185
▁looked	-8.78465
▁wonder	-8.78532
▁Of	-8.78687
▁V	-8.7894
▁late	-8.79132
▁themselves	-8.79141
▁present	-8.79153
▁lost	-8.7924
▁past	-8.79363
ton	-8.79391
nt	-8.79669
If	-8.7979
▁complete	-8.79865
Y	-8.8025
▁blood	-8.80294
▁With	-8.80458
▁parts	-8.80619
▁thinking	-8.8133
▁already	-8.814
fi	-8.81475
▁Also	-8.8154
▁written	-8.81552
▁career	-8.81682
▁wants	-8.81847
▁4	-8.81936
▁hit	-8.82145
ty	-8.8235
▁writing	-8.8255
▁running	-8.82552
▁fair	-8.82598
ol	-8.8263
▁maybe	-8.82673
K	-8.82673
▁add	-8.8373
▁dead	-8.83785
▁experience	-8.83798
▁comic	-8.83839
▁light	-8.84065
▁enjoyed	-8.84411
▁stop	-8.85016
▁Even	-8.85017
ance	-8.85025
▁lack	-8.85041
ble	-8.85164
▁act	-8.85452
▁strong	-8.85493
▁amazing	-8.85645
▁moment	-8.85673
▁wish	-8.85704
tic	-8.85882
ine	-8.85884
▁etc	-8.86175
po	-8.86479
▁obvious	-8.86871
▁sequence	-8.86889
▁usual	-8.86891
▁sad	-8.87191
▁self	-8.87284
*	-8.87308
▁heard	-8.87685
▁taken	-8.87892
▁brilliant	-8.88082
age	-8.88389
▁horrible	-8.88504
▁hold	-8.88504
▁humor	-8.88509
ful	-8.88558
▁5	-8.88994
ian	-8.89033
▁Don	-8.89271
▁view	-8.89468
▁non	-8.89648
▁actress	-8.89652
▁hilarious	-8.89739
▁simple	-8.89739
▁novel	-8.89775
▁Man	-8.89919
▁On	-8.89966
▁murder	-8.90022
one	-8.90591
▁brother	-8.90665
▁relationship	-8.90668
▁hour	-8.90768
▁De	-8.90819
▁opinion	-8.90989
▁figure	-8.91022
▁modern	-8.91032
▁ago	-8.91285
▁break	-8.91793
▁Robert	-8.91928
ig	-8.91929
3	-8.92113
▁behind	-8.92258
▁writer	-8.92269
▁gay	-8.9231
▁reality	-8.92348
de	-8.92447
▁final	-8.92896
▁slow	-8.93132
▁move	-8.93284
▁killer	-8.93444
J	-8.93508
▁>	-8.93542
▁Re	-8.93559
▁white	-8.93574
▁despi	-8.93584
▁documentary	-8.93591
ant	-8.94007
▁word	-8.94738
▁ridiculous	-8.94835
▁York	-8.94836
▁disappointed	-8.94891
▁feeling	-8.95118
▁days	-8.95167
▁talent	-8.95515
▁Ma	-8.95524
▁possible	-8.96151
▁Michael	-8.96227
▁hell	-8.9628
▁based	-8.96304
▁age	-8.96415
▁Some	-8.96418
ho	-8.967
N	-8.96751
▁soon	-8.9696
▁result	-8.97322
▁English	-8.97484
▁question	-8.97535
▁finally	-8.97917
▁coming	-8.97944
▁killed	-8.98101
▁starts	-8.9811
▁dis	-8.98527
▁sequel	-8.98757
ha	-8.98822
▁attention	-8.98836
▁stories	-8.98836
▁save	-8.98837
▁above	-8.98837
ally	-8.99039
▁How	-8.99094
U	-8.99113
▁happened	-8.99172
▁Joe	-8.99467
▁U	-8.99577
▁talk	-8.99614
▁meet	-8.9962
▁expected	-8.99649
▁con	-8.99904
▁walk	-9.00148
▁comment	-9.00154
▁crime	-9.00206
▁knew	-9.00206
▁straight	-9.00208
▁throw	-9.00208
▁thriller	-9.00372
na	-9.00789
5	-9.00929
▁change	-9.01299
▁hate	-9.01444
▁police	-9.01561
▁French	-9.01596
▁sometimes	-9.01599
▁violence	-9.01632
▁somewhat	-9.01659
▁exactly	-9.01667
▁George	-9.01674
do	-9.01793
▁Dr	-9.01794
▁hero	-9.01795
ite	-9.01863
▁follow	-9.01942
▁m	-9.01965
▁obviously	-9.02074
▁haven	-9.02281
▁fall	-9.02384
ment	-9.02398
▁decide	-9.0269
There	-9.02878
of	-9.02961
▁dialog	-9.02997
▁gave	-9.03024
▁annoying	-9.03049
ma	-9.03069
▁La	-9.03096
▁storyline	-9.0312
!"	-9.03133
▁across	-9.03139
!)	-9.03291
▁gore	-9.03623
▁sh	-9.03715
But	-9.03916
▁serious	-9.03983
▁stand	-9.04005
way	-9.04138
bo	-9.04174
▁Or	-9.04204
▁four	-9.04402
▁level	-9.045
▁called	-9.04974
but	-9.04979
▁happens	-9.0512
he	-9.053
▁St	-9.05549
▁pre	-9.05555
▁subject	-9.05881
▁bunch	-9.0589
▁country	-9.05898
▁typical	-9.05942
▁cover	-9.06088
▁wouldn	-9.06092
x	-9.0653
▁today	-9.06754
ia	-9.07051
▁call	-9.07071
▁none	-9.07239
▁cheap	-9.07351
	-9.07351
▁premise	-9.07351
▁memorable	-9.07368
▁known	-9.07387
ot	-9.07438
▁g	-9.07573
W	-9.07668
▁interest	-9.07903
1	-9.08093
▁mess	-9.08317
▁important	-9.0846
▁falls	-9.08832
▁soundtrack	-9.08844
▁female	-9.08861
▁husband	-9.08861
▁told	-9.08883
▁form	-9.08927
▁fast	-9.08943
▁songs	-9.09064
ci	-9.09102
▁includ	-9.09688
▁J	-9.09794
who	-9.09915
▁mention	-9.09928
▁shown	-9.1023
em	-9.10332
▁cinematography	-9.10359
▁huge	-9.10362
▁large	-9.10362
▁scary	-9.10365
▁single	-9.10373
▁Just	-9.10375
▁review	-9.10416
▁predictable	-9.10429
▁OK	-9.105
▁type	-9.10668
▁hours	-9.10725
▁parents	-9.1087
▁giv	-9.1089
▁remind	-9.1097
▁gun	-9.1103
▁Then	-9.11197
be	-9.11429
▁class	-9.11668
▁strange	-9.11692
▁vari	-9.11801
ated	-9.1182
▁silly	-9.11898
▁crap	-9.119
▁dull	-9.11924
▁truth	-9.11939
▁David	-9.12011
time	-9.12025
▁works	-9.12183
▁power	-9.12245
▁wait	-9.12875
▁cop	-9.13007
▁prove	-9.13385
▁beyond	-9.1346
▁easily	-9.1346
▁	-9.1349
pe	-9.13494
rought	-9.135
▁rock	-9.13606
▁catch	-9.13756
▁minute	-9.13961
ever	-9.14167
▁Le	-9.14375
▁lame	-9.14471
▁whe	-9.14806
▁post	-9.14983
▁twist	-9.1504
▁involved	-9.15086
▁due	-9.15086
▁enjoyable	-9.1514
?"	-9.15166
ow	-9.15262
▁Li	-9.1527
▁effort	-9.15374
ak	-9.15457
▁tr	-9.15847
co	-9.15856
▁clear	-9.16245
▁cut	-9.16292
▁surprise	-9.16391
▁release	-9.1642
▁ends	-9.1643
▁sexual	-9.16652
▁general	-9.1666
▁20	-9.1673
▁stage	-9.16786
▁Unfortunately	-9.1684
▁seriously	-9.17131
▁saying	-9.17157
ster	-9.17253
▁aren	-9.1742
▁hot	-9.17579
▁deal	-9.17715
▁eyes	-9.17753
▁rent	-9.1787
▁others	-9.17912
▁theme	-9.18002
▁says	-9.18154
ious	-9.18242
▁period	-9.18299
▁yourself	-9.18299
▁taking	-9.18303
▁suspense	-9.18566
▁8	-9.18869
old	-9.19119
▁pass	-9.19129
What	-9.19212
io	-9.19732
▁major	-9.19942
▁difficult	-9.19966
▁realistic	-9.19981
▁team	-9.19992
▁spend	-9.20017
▁t	-9.20066
▁80	-9.20081
off	-9.20093
dy	-9.2015
▁roles	-9.20263
▁Oh	-9.2033
▁eye	-9.20369
if	-9.20407
▁tells	-9.20564
ought	-9.20641
▁die	-9.20836
▁started	-9.21162
▁An	-9.21284
▁please	-9.21428
op	-9.21521
wa	-9.21553
▁check	-9.21663
▁powerful	-9.21676
▁romantic	-9.21694
▁Z	-9.2194
▁surprised	-9.21991
▁villain	-9.22265
ut	-9.22271
▁Go	-9.22376
bi	-9.22456
▁Her	-9.23254
▁local	-9.23387
▁living	-9.23387
▁development	-9.23394
▁evil	-9.23458
▁editing	-9.23493
▁body	-9.23648
▁Now	-9.23717
▁touch	-9.23869
▁opening	-9.23942
▁sequences	-9.23956
▁Movie	-9.24027
▁number	-9.24045
▁toward	-9.24264
And	-9.24522
▁sit	-9.24522
di	-9.24672
▁needs	-9.24707
▁jokes	-9.24831
▁stay	-9.24836
▁happen	-9.25035
▁shots	-9.25135
▁herself	-9.2514
▁imagine	-9.2514
▁store	-9.25169
▁Maybe	-9.25272
▁easy	-9.25295
▁except	-9.25313
ard	-9.25462
all	-9.26364
▁By	-9.26512
!!!	-9.2658
▁War	-9.26639
line	-9.26838
▁similar	-9.26919
▁future	-9.26926
▁believable	-9.26932
▁background	-9.26935
!!	-9.27056
▁forget	-9.27142
▁room	-9.2715
▁musical	-9.27196
▁released	-9.27274
lu	-9.2751
like	-9.27636
▁return	-9.27729
▁effect	-9.2781
▁killing	-9.28045
▁feature	-9.28421
ach	-9.28539
▁realize	-9.28565
▁Sam	-9.28738
▁30	-9.28743
▁material	-9.28743
▁attack	-9.28745
▁alone	-9.28747
▁odd	-9.28814
▁Jack	-9.28816
▁open	-9.29001
▁copy	-9.29027
▁words	-9.29028
▁miss	-9.29391
▁land	-9.29444
▁perfectly	-9.29583
for	-9.29799
▁learn	-9.30151
▁Fro	-9.30391
▁weak	-9.3056
▁admit	-9.30583
▁famous	-9.30595
▁romance	-9.30595
▁potential	-9.30596
▁agree	-9.30597
▁middle	-9.306
▁tale	-9.30614
▁pay	-9.30616
So	-9.30641
▁rating	-9.30731
which	-9.31729
▁leads	-9.31742
came	-9.31744
▁problems	-9.31919
▁America	-9.32238
▁business	-9.32451
▁atmosphere	-9.32482
▁cheesy	-9.32482
▁success	-9.32485
▁train	-9.32491
▁Lee	-9.32542
▁begins	-9.3298
side	-9.33132
▁cat	-9.33376
▁e	-9.33422
▁highly	-9.33659
▁st	-9.33703
▁elements	-9.33788
As	-9.33871
▁list	-9.33922
▁Ca	-9.33945
▁pull	-9.33977
da	-9.34209
▁super	-9.34348
▁write	-9.34395
▁clever	-9.34405
▁front	-9.34405
▁trouble	-9.34408
▁effective	-9.34429
▁otherwise	-9.34443
▁Richard	-9.34472
ick	-9.34511
▁apparently	-9.34599
▁hear	-9.34663
ip	-9.34822
▁air	-9.34861
▁avoid	-9.34881
▁clearly	-9.34903
▁ask	-9.34966
▁girls	-9.35082
▁acted	-9.3527
▁events	-9.35346
den	-9.35369
▁Ra	-9.35402
ence	-9.35435
▁monster	-9.35469
▁imp	-9.35506
▁sc	-9.35527
by	-9.35807
▁personal	-9.36111
go	-9.36211
▁concept	-9.36238
▁points	-9.36271
▁amusing	-9.36367
▁conclusion	-9.36367
▁tried	-9.36371
▁crazy	-9.36392
▁possibly	-9.36404
▁somehow	-9.36418
▁box	-9.36438
▁James	-9.3645
▁Jason	-9.36502
▁Will	-9.36552
▁Do	-9.36608
▁building	-9.36668
▁usually	-9.37048
▁d	-9.37063
▁appears	-9.37125
9	-9.37141
▁viewing	-9.37314
▁needed	-9.37534
movie	-9.37614
▁buy	-9.37815
we	-9.37917
▁total	-9.38082
ga	-9.3811
▁dog	-9.3813
▁starr	-9.38236
▁message	-9.38385
▁overall	-9.38465
▁stick	-9.38506
ring	-9.38511
▁gone	-9.38541
▁First	-9.38559
▁step	-9.38599
land	-9.38686
▁directing	-9.38725
▁decided	-9.38814
ted	-9.39101
▁appear	-9.39165
▁r	-9.39522
?)	-9.39547
well	-9.39751
▁Pa	-9.39778
▁Mar	-9.39782
▁Po	-9.39853
ca	-9.39873
ay	-9.39904
▁previous	-9.39984
▁pick	-9.39985
▁secret	-9.40399
▁incredibly	-9.40407
▁project	-9.40407
▁fantastic	-9.40408
▁neither	-9.40408
▁further	-9.4041
▁culture	-9.40415
▁Jim	-9.40428
▁plain	-9.4043
▁girlfriend	-9.40493
▁average	-9.40495
▁anyway	-9.40534
▁rich	-9.40538
kept	-9.40559
▁90	-9.40563
▁Like	-9.40643
▁fit	-9.40652
ver	-9.40671
▁portrayed	-9.40769
▁ways	-9.40861
▁ho	-9.40998
ler	-9.41201
▁features	-9.41548
ke	-9.4156
")	-9.4158
▁wasted	-9.4193
▁certain	-9.42077
▁actual	-9.42091
▁reading	-9.4221
7	-9.42344
▁prison	-9.42459
ING	-9.42476
▁gang	-9.42485
▁awesome	-9.4249
▁weird	-9.42496
▁Nick	-9.42513
▁moral	-9.42519
▁US	-9.42524
▁era	-9.42571
▁...	-9.42594
▁dumb	-9.4262
▁Ro	-9.42647
led	-9.42664
▁pointless	-9.42681
ud	-9.42955
▁God	-9.42988
▁Na	-9.43213
ney	-9.43356
▁means	-9.43561
▁poorly	-9.43622
▁King	-9.43679
▁Y	-9.43799
You	-9.43872
▁adult	-9.43917
▁discover	-9.44189
▁honest	-9.442
▁superb	-9.4425
▁cute	-9.44443
han	-9.44535
ny	-9.44577
▁doubt	-9.44618
▁wrote	-9.44618
▁tension	-9.44619
▁nature	-9.44621
▁World	-9.44643
▁portrayal	-9.44688
My	-9.44788
▁whatever	-9.44825
▁70	-9.44849
end	-9.44939
▁ten	-9.45042
ge	-9.45259
ee	-9.45273
▁deserves	-9.45348
work	-9.45569
▁upon	-9.45596
▁escape	-9.45724
8	-9.45901
▁situation	-9.46148
▁visual	-9.46168
mm	-9.46185
ping	-9.46328
▁badly	-9.46362
▁emotional	-9.4641
ack	-9.46477
All	-9.46512
▁value	-9.46749
▁among	-9.46793
▁sub	-9.46806
▁mystery	-9.46834
▁Alex	-9.46874
▁6	-9.46966
▁quickly	-9.47053
▁writers	-9.47277
▁sp	-9.47433
▁pure	-9.47658
▁ideas	-9.47688
4	-9.47771
▁consider	-9.47972
▁fill	-9.48096
▁19	-9.48249
▁sister	-9.48338
ain	-9.48374
▁begin	-9.48462
▁focus	-9.48666
ley	-9.48758
▁Smith	-9.49014
▁incredible	-9.49014
▁positive	-9.49015
▁race	-9.49016
▁entertainment	-9.4902
▁spent	-9.49034
▁suspect	-9.49053
▁fear	-9.49059
▁travel	-9.49074
▁male	-9.49177
▁created	-9.49466
▁7	-9.49502
▁changed	-9.49519
▁Mo	-9.49551
▁interested	-9.4968
ary	-9.49744
▁Al	-9.49752
▁talking	-9.49988
▁Che	-9.50109
▁lots	-9.50249
rs	-9.5025
▁notice	-9.50675
▁charm	-9.50727
▁theater	-9.50757
v	-9.50933
▁grow	-9.51075
tro	-9.51132
▁working	-9.51153
ex	-9.5122
▁accent	-9.51287
▁earlier	-9.51287
▁fresh	-9.51287
▁Film	-9.51287
▁animation	-9.51287
▁brain	-9.51287
▁desperate	-9.51288
▁happy	-9.51288
▁approach	-9.51288
▁season	-9.51293
▁basically	-9.51296
▁crew	-9.51303
▁remake	-9.51304
▁Black	-9.51353
▁dress	-9.51401
▁Allen	-9.51414
ane	-9.51492
▁la	-9.5169
▁cr	-9.5189
▁following	-9.52303
é	-9.52324
▁inside	-9.52641
art	-9.53177
▁successful	-9.53204
this	-9.53219
▁gra	-9.53246
▁pace	-9.53287
▁bar	-9.53452
▁shame	-9.53574
▁British	-9.53612
▁involving	-9.53612
▁plenty	-9.53612
▁exciting	-9.53612
▁cult	-9.53613
▁comedies	-9.53614
▁hair	-9.53631
▁popular	-9.53641
▁adventure	-9.53676
▁ship	-9.53689
He	-9.53704
over	-9.53718
▁free	-9.53757
▁Although	-9.53842
vi	-9.53886
nother	-9.54127
▁ma	-9.54183
▁Da	-9.5425
uch	-9.54387
▁Ho	-9.54903
▁purpose	-9.55038
▁ride	-9.55144
die	-9.55163
V	-9.55182
▁n	-9.55357
oo	-9.5538
▁nor	-9.55495
▁feels	-9.55562
▁dream	-9.55582
▁laughs	-9.55859
▁public	-9.55973
▁visit	-9.55994
▁terrific	-9.55997
▁spot	-9.56005
▁respect	-9.56006
▁Oscar	-9.5604
▁Christian	-9.56042
▁creepy	-9.56071
▁search	-9.56076
▁sci	-9.56114
▁Paul	-9.56133
▁unfortunately	-9.56135
▁Me	-9.56196
ily	-9.56223
▁moves	-9.56452
▁Star	-9.56458
▁former	-9.56603
▁9	-9.56712
ual	-9.56841
ized	-9.56927
ner	-9.57037
▁sets	-9.57038
der	-9.57127
▁battle	-9.57181
▁Gar	-9.5752
▁rip	-9.57576
▁en	-9.577
▁telling	-9.57713
▁create	-9.57795
▁drive	-9.57916
pp	-9.58173
▁Steve	-9.58224
ff	-9.58234
▁Fa	-9.58378
▁million	-9.58416
▁genuine	-9.58432
▁space	-9.58432
▁television	-9.58432
▁indeed	-9.58442
▁screenplay	-9.58451
▁doctor	-9.58474
▁Night	-9.58508
▁disappointing	-9.58573
ake	-9.58622
▁Great	-9.58638
▁credits	-9.58724
▁recently	-9.58737
▁song	-9.58779
ba	-9.58845
▁shooting	-9.58986
ag	-9.59083
va	-9.59104
mo	-9.59146
ey	-9.59263
lin	-9.59686
▁portray	-9.59801
▁fighting	-9.59965
▁explain	-9.60077
▁Ga	-9.60173
▁manages	-9.60286
that	-9.60607
▁setting	-9.60627
▁credit	-9.60634
▁Mc	-9.60696
ger	-9.60926
▁smart	-9.60932
▁survive	-9.60932
▁beauty	-9.60932
▁presence	-9.60933
▁humour	-9.60933
▁footage	-9.60936
▁Howard	-9.60956
▁third	-9.60981
▁changes	-9.60987
▁sorry	-9.61001
▁five	-9.61006
▁regard	-9.6102
▁ground	-9.61097
▁Watch	-9.61097
▁Steven	-9.61157
om	-9.61311
ial	-9.61312
▁soul	-9.61525
▁forward	-9.61573
ure	-9.61703
▁worked	-9.62059
▁*	-9.62472
pa	-9.62525
6	-9.62579
good	-9.62745
▁casting	-9.63013
▁finish	-9.6305
▁master	-9.63168
▁suppose	-9.63185
▁standard	-9.63255
▁cross	-9.63463
▁language	-9.63496
▁Italian	-9.63497
▁common	-9.63498
▁moving	-9.635
▁caught	-9.63501
▁partner	-9.63548
▁slightly	-9.63567
▁bored	-9.63629
ina	-9.6366
▁familiar	-9.6368
▁developed	-9.63836
gen	-9.6402
▁share	-9.64036
▁Hell	-9.64036
ice	-9.64071
low	-9.64193
▁win	-9.64195
per	-9.64217
▁flaws	-9.64374
▁entirely	-9.64723
▁lighting	-9.64814
▁fails	-9.64833
ac	-9.64942
so	-9.65022
▁Tom	-9.65148
▁shoot	-9.65534
One	-9.65584
▁cliché	-9.65605
For	-9.65627
▁treat	-9.65664
▁knows	-9.6582
▁Un	-9.65886
▁Con	-9.65889
▁dance	-9.6592
▁natural	-9.6608
▁amount	-9.66128
▁intelligent	-9.66128
▁pathetic	-9.66128
▁okay	-9.66128
▁mood	-9.66128
▁disaster	-9.66129
▁Disney	-9.66131
▁tight	-9.66138
red	-9.66216
▁Peter	-9.66236
▁Instead	-9.6624
▁roll	-9.66299
▁Who	-9.6633
▁failed	-9.6634
▁Dead	-9.66358
▁forced	-9.66402
▁missed	-9.66779
▁wide	-9.66788
au	-9.67075
ating	-9.67129
▁anti	-9.67195
▁costumes	-9.6726
▁laughing	-9.67793
▁II	-9.68027
▁flat	-9.68116
▁sleep	-9.68213
▁viewers	-9.68257
▁camp	-9.68364
tch	-9.6837
▁mix	-9.68396
▁reviews	-9.68411
▁German	-9.68575
vo	-9.68728
▁red	-9.68767
▁IMDb	-9.68831
▁commercial	-9.68831
▁difference	-9.68831
▁redeem	-9.68831
▁society	-9.68831
▁stunning	-9.68831
▁heavy	-9.68831
▁apartment	-9.68845
▁eventually	-9.68863
▁dramatic	-9.68864
▁meant	-9.68869
▁city	-9.68896
▁Dennis	-9.68904
▁Scott	-9.68907
▁produced	-9.68939
▁Perhaps	-9.68967
▁Harry	-9.68979
▁High	-9.69011
ah	-9.69062
▁Director	-9.69093
▁questions	-9.69106
▁band	-9.69141
▁mark	-9.69321
ities	-9.69325
▁island	-9.69695
▁sign	-9.69695
▁thanks	-9.70044
▁ca	-9.70401
▁showing	-9.70545
putting	-9.7063
▁per	-9.70752
▁note	-9.70765
with	-9.70878
▁suffer	-9.71001
▁appeal	-9.71007
▁suggest	-9.71027
▁Lo	-9.71096
▁Be	-9.71122
▁ta	-9.71146
▁filmed	-9.71236
hose	-9.71278
▁di	-9.71328
▁cartoon	-9.71538
day	-9.71549
▁bizarre	-9.71608
▁convincing	-9.71608
▁innocent	-9.71608
▁convey	-9.71609
▁disappointment	-9.71612
▁Martin	-9.71613
▁frame	-9.71613
▁impressive	-9.71615
▁Ba	-9.71624
▁unique	-9.71624
▁Most	-9.71753
rew	-9.71818
▁teen	-9.71908
▁outside	-9.71913
ging	-9.72089
nna	-9.72431
▁situations	-9.7244
▁whom	-9.72457
▁happening	-9.72556
▁Love	-9.72654
▁Mi	-9.72709
ned	-9.72851
▁fully	-9.73067
ors	-9.73285
▁hop	-9.73288
▁opera	-9.73475
That	-9.73712
▁exception	-9.73751
▁meaning	-9.7379
right	-9.73866
▁speak	-9.73871
ug	-9.74069
▁ended	-9.74095
Re	-9.74222
▁NOT	-9.74286
▁office	-9.74387
▁thin	-9.74448
▁brief	-9.74465
▁marriage	-9.74465
▁biggest	-9.74466
▁CGI	-9.74466
▁Japanese	-9.74467
▁nudity	-9.74471
▁drug	-9.74475
▁gangster	-9.74481
▁studio	-9.74496
▁15	-9.74503
▁Matt	-9.7452
▁somewhere	-9.7454
▁depth	-9.74544
▁detail	-9.74561
▁Where	-9.74589
▁teacher	-9.74605
▁laughable	-9.74611
▁political	-9.74617
▁pain	-9.74623
▁join	-9.74643
▁Fred	-9.74721
▁Good	-9.74722
▁display	-9.74807
▁sent	-9.74916
▁Miss	-9.74981
▁Ver	-9.75174
▁aspect	-9.75249
RE	-9.75308
▁bother	-9.7555
▁older	-9.75583
▁struggle	-9.7578
ze	-9.75833
▁cost	-9.75934
▁beautifully	-9.7612
ka	-9.76155
▁Here	-9.7622
even	-9.76355
▁Br	-9.76392
▁filmmakers	-9.76468
▁shock	-9.76615
cy	-9.76648
back	-9.76741
▁fire	-9.76836
▁deep	-9.76846
▁inter	-9.76949
▁unlike	-9.77016
coming	-9.77145
▁describe	-9.77196
▁date	-9.77209
▁reasons	-9.7721
▁chemistry	-9.77407
▁computer	-9.77407
▁intriguing	-9.77407
▁likable	-9.77407
▁opportunity	-9.77407
▁silent	-9.77407
▁six	-9.77408
▁plus	-9.77408
▁masterpiece	-9.77409
▁addition	-9.77413
▁match	-9.77436
▁Nothing	-9.77466
▁test	-9.77498
▁Jean	-9.77539
▁choice	-9.77547
▁ultimately	-9.77563
▁Woody	-9.77585
▁Every	-9.7761
▁sell	-9.77626
▁rate	-9.77957
cut	-9.78322
cu	-9.78619
We	-9.78868
▁apart	-9.78959
▁party	-9.79339
▁See	-9.79437
gu	-9.79603
ball	-9.79829
▁books	-9.79877
▁Bill	-9.80198
▁state	-9.80335
▁teenage	-9.80348
▁comparison	-9.80437
▁complex	-9.80437
▁random	-9.80441
▁tough	-9.80454
▁confused	-9.80461
▁cold	-9.80469
▁sick	-9.80471
▁boyfriend	-9.80473
▁pop	-9.80474
▁station	-9.80492
▁violent	-9.80496
▁comments	-9.80541
▁choose	-9.80556
▁Though	-9.80567
▁Jones	-9.80604
▁City	-9.80621
▁60	-9.80638
▁enter	-9.80648
ber	-9.80654
▁drawn	-9.80659
▁managed	-9.80711
▁issue	-9.80717
▁13	-9.80893
▁Can	-9.8095
▁honestly	-9.81037
ana	-9.81046
ort	-9.81274
▁values	-9.81338
No	-9.81343
▁Only	-9.81476
▁bear	-9.81624
ER	-9.81842
istic	-9.81875
▁sa	-9.82137
pl	-9.82146
▁Car	-9.82379
OR	-9.82432
▁producers	-9.82571
▁drag	-9.82673
men	-9.83043
▁delivers	-9.83043
▁boys	-9.83117
▁rare	-9.83141
▁painful	-9.83154
gi	-9.83401
mon	-9.83519
▁Sa	-9.83539
▁relative	-9.83562
▁Chinese	-9.83562
▁confusing	-9.83562
▁jump	-9.83562
▁Kevin	-9.83563
▁college	-9.83563
▁hint	-9.8357
▁water	-9.83573
▁impression	-9.83574
▁minor	-9.83578
▁push	-9.83581
▁highlight	-9.83587
▁nasty	-9.83589
▁control	-9.8359
▁host	-9.83593
▁Henry	-9.83624
▁track	-9.83639
▁cinematic	-9.83649
▁subtle	-9.83651
▁carry	-9.8367
▁cause	-9.83737
▁ability	-9.83918
▁allow	-9.83942
▁William	-9.84036
ron	-9.84042
▁sta	-9.84373
▁charming	-9.84392
▁mentioned	-9.84487
▁Sp	-9.84502
▁younger	-9.84512
▁terms	-9.8454
os	-9.84547
light	-9.84626
▁holes	-9.85109
LY	-9.85229
▁worthy	-9.85267
fully	-9.85398
▁mis	-9.85436
ving	-9.85438
▁Hu	-9.85452
▁beat	-9.85552
▁continue	-9.85673
my	-9.85847
making	-9.86047
▁perform	-9.86188
▁episodes	-9.86519
▁fights	-9.8659
ue	-9.86595
▁stands	-9.86642
▁basic	-9.86775
▁process	-9.86788
▁drunk	-9.86788
▁superior	-9.86788
▁outstanding	-9.86788
▁conflict	-9.86789
▁detective	-9.86792
▁immediately	-9.86836
ib	-9.86901
▁bomb	-9.86969
▁road	-9.86971
ward	-9.87006
▁actresses	-9.87017
▁constantly	-9.87097
▁Two	-9.8716
▁Day	-9.87162
▁law	-9.87208
▁mistake	-9.87238
▁allowed	-9.87245
har	-9.87254
▁remain	-9.87254
▁oh	-9.87269
▁street	-9.87319
ical	-9.87518
its	-9.87582
▁considering	-9.87668
▁Ri	-9.8787
▁talented	-9.87892
▁touching	-9.87932
▁longer	-9.87997
▁Ar	-9.88073
▁plan	-9.88344
ony	-9.88768
▁direct	-9.88816
▁award	-9.88842
▁Ha	-9.88986
ier	-9.89051
▁helps	-9.89055
ably	-9.89203
▁area	-9.89322
down	-9.89342
house	-9.8936
ship	-9.89416
▁record	-9.89511
▁develop	-9.89663
▁accept	-9.89669
▁recent	-9.89715
▁mere	-9.89756
▁Bad	-9.89768
▁force	-9.89787
bad	-9.8981
▁Se	-9.89822
▁artist	-9.8995
▁deliver	-9.8998
▁taste	-9.90084
▁gorgeous	-9.90121
▁unusual	-9.90121
▁steal	-9.90122
▁solid	-9.90124
▁Chuck	-9.90124
▁childhood	-9.90129
▁tired	-9.9017
▁married	-9.9018
▁century	-9.90187
▁intended	-9.90204
▁carrie	-9.90215
▁Adam	-9.90221
▁glad	-9.90221
▁mouth	-9.9029
▁hands	-9.90365
▁expectations	-9.90687
▁joke	-9.90717
▁$	-9.90818
iness	-9.90891
▁mine	-9.90924
ize	-9.91338
▁Let	-9.91351
Ch	-9.91718
our	-9.92148
▁door	-9.92157
▁lover	-9.92162
vy	-9.92238
▁emotions	-9.92274
▁suit	-9.92342
▁50	-9.92412
▁mu	-9.92432
▁Cha	-9.92508
king	-9.92695
▁vi	-9.92911
....	-9.92918
lan	-9.92971
▁sounds	-9.92988
▁offers	-9.9301
▁design	-9.93113
▁quick	-9.93159
▁count	-9.93379
▁showed	-9.93387
▁normal	-9.9339
▁ch	-9.93455
▁industry	-9.93569
▁journey	-9.93569
▁religious	-9.93569
▁affair	-9.93569
▁comedic	-9.9357
▁advice	-9.93572
▁stock	-9.93575
▁guard	-9.93575
▁influence	-9.93577
▁collection	-9.9358
▁vote	-9.93584
▁wooden	-9.93594
▁blame	-9.93595
▁professional	-9.93598
▁gem	-9.93599
▁fake	-9.93604
▁directors	-9.93614
▁bigger	-9.93616
▁manner	-9.93655
▁Charlie	-9.93664
▁inspired	-9.93698
▁barely	-9.93738
▁suddenly	-9.93739
▁fashion	-9.93745
▁officer	-9.93773
rate	-9.93876
ft	-9.93928
▁utterly	-9.93931
▁Overall	-9.93992
▁finding	-9.94116
ru	-9.9416
▁creature	-9.94248
▁considered	-9.94269
▁send	-9.94278
▁victim	-9.94329
ect	-9.94343
▁aside	-9.94362
▁mad	-9.94442
▁relationships	-9.9447
▁Co	-9.94493
▁Ben	-9.94513
▁ill	-9.94674
ki	-9.94722
▁missing	-9.9473
▁lived	-9.94732
▁sexy	-9.94783
ise	-9.95081
▁remembered	-9.95273
nce	-9.95306
com	-9.95458
head	-9.95942
▁j	-9.96185
▁twists	-9.9631
tion	-9.96473
▁insult	-9.96547
▁places	-9.96693
▁loose	-9.96706
ank	-9.96717
▁seeming	-9.96762
▁relate	-9.96807
▁desire	-9.96819
les	-9.96973
she	-9.96996
▁NO	-9.97075
▁awkward	-9.97141
▁encounter	-9.97141
▁essential	-9.97141
▁government	-9.97141
▁mysterious	-9.97141
▁scenario	-9.97141
▁system	-9.97141
▁sweet	-9.97141
▁blind	-9.97141
▁failure	-9.97145
▁community	-9.97146
▁Jew	-9.97147
▁exploitation	-9.97161
▁anymore	-9.97172
▁achieve	-9.97176
▁heroine	-9.9718
▁climax	-9.97183
▁sitting	-9.97191
▁follows	-9.97197
▁metal	-9.97199
▁naked	-9.97267
▁extra	-9.97313
▁began	-9.9732
▁motion	-9.97328
▁compared	-9.97331
▁introduced	-9.97344
artial	-9.97391
hy	-9.97536
To	-9.97603
▁du	-9.97626
▁makers	-9.97647
Bo	-9.97692
▁Still	-9.97697
ude	-9.97727
▁th	-9.97869
▁color	-9.97922
▁chase	-9.97927
▁alien	-9.98002
▁week	-9.98029
ide	-9.98209
▁themes	-9.98347
Fi	-9.98512
▁includes	-9.9868
▁laughed	-9.98835
ties	-9.98846
▁l	-9.98949
▁sing	-9.98989
▁soldiers	-9.99019
▁members	-9.9902
▁knowing	-9.99118
+	-9.99282
▁Ka	-9.99537
▁ran	-9.9964
her	-9.99709
▁Was	-9.99743
▁Ta	-9.99764
ven	-9.99846
what	-9.99918
▁kick	-9.99934
▁ro	-9.99958
budget	-10.0009
▁victims	-10.0011
▁faces	-10.0026
▁physical	-10.0041
▁ha	-10.0053
▁lovely	-10.0057
▁trip	-10.0067
▁details	-10.0073
ky	-10.0074
▁Wilson	-10.0084
▁available	-10.0084
▁funniest	-10.0084
▁revenge	-10.0084
▁absurd	-10.0084
▁negative	-10.0084
▁slasher	-10.0084
▁kiss	-10.0085
▁pleasure	-10.0085
▁military	-10.0085
▁Christmas	-10.0085
▁ugly	-10.0085
▁excuse	-10.0085
▁Western	-10.0085
▁terrorist	-10.0086
▁lady	-10.0086
▁commentary	-10.0087
▁tree	-10.0087
▁People	-10.0089
▁grace	-10.0089
▁personality	-10.0089
▁social	-10.0089
▁Edward	-10.0092
▁Part	-10.0092
▁pretentious	-10.0095
!!!!	-10.0097
▁Yet	-10.0101
you	-10.0107
▁vision	-10.0108
▁Sure	-10.0114
▁lock	-10.0124
▁Yes	-10.0131
mer	-10.0132
▁Did	-10.0135
ough	-10.0137
▁yes	-10.0137
▁pro	-10.0157
▁manage	-10.0158
▁image	-10.0178
▁personally	-10.0181
▁brothers	-10.0182
▁skill	-10.0183
▁rented	-10.0187
▁seek	-10.0195
▁hated	-10.0195
▁spirit	-10.0201
▁leader	-10.0203
▁falling	-10.0245
Then	-10.027
lly	-10.027
▁sat	-10.0279
▁40	-10.0281
▁contains	-10.0292
fo	-10.0312
nd	-10.0333
▁Chris	-10.0337
▁willing	-10.0344
▁Sha	-10.0348
j	-10.0351
ction	-10.0355
▁Jo	-10.0386
itive	-10.0392
▁Cu	-10.0405
▁build	-10.041
▁remains	-10.0415
▁issues	-10.0438
top	-10.0439
▁Mac	-10.0439
▁decade	-10.0441
▁div	-10.0452
▁trash	-10.0458
▁porn	-10.0461
▁Tim	-10.0463
▁capture	-10.0463
▁forest	-10.0466
▁brutal	-10.0466
uck	-10.0469
▁category	-10.0469
▁engaging	-10.0469
▁genius	-10.0469
▁hospital	-10.0469
▁refreshing	-10.0469
▁tragedy	-10.0469
▁unbelievable	-10.0469
▁village	-10.0469
▁Linda	-10.0469
▁speech	-10.0469
▁pair	-10.0469
▁dancing	-10.047
▁epic	-10.0472
▁thus	-10.0472
▁pictures	-10.0473
▁Canadian	-10.0474
▁park	-10.0475
▁disturbing	-10.0477
▁West	-10.0479
▁compelling	-10.0482
▁market	-10.0483
▁photography	-10.0484
▁par	-10.0485
▁loud	-10.0486
▁Allan	-10.049
▁graphic	-10.0495
▁center	-10.0499
▁Billy	-10.05
star	-10.0505
▁equally	-10.0506
▁surprisingly	-10.0506
▁soft	-10.0509
kin	-10.052
▁mid	-10.0522
▁Jer	-10.0525
▁Maris	-10.0532
▁mixed	-10.0533
Do	-10.0538
▁Van	-10.0538
long	-10.0539
▁dreams	-10.0541
▁Jane	-10.0542
ash	-10.0545
▁picked	-10.0554
▁mo	-10.0563
▁stayed	-10.0568
ini	-10.0575
▁Roger	-10.0575
dom	-10.0582
▁IT	-10.0586
▁critics	-10.0592
▁slowly	-10.0598
che	-10.0599
▁adults	-10.0599
ically	-10.0603
ass	-10.0608
▁murdered	-10.0609
mber	-10.0639
though	-10.0641
eep	-10.0648
▁wear	-10.068
▁ahead	-10.0699
▁students	-10.0707
ight	-10.0709
%	-10.0725
▁players	-10.0737
▁offer	-10.074
▁Pe	-10.0753
part	-10.0766
10	-10.0788
▁bus	-10.0797
▁represent	-10.0803
rd	-10.0806
▁forces	-10.0817
▁destroy	-10.0824
ette	-10.0833
▁appreciate	-10.0836
▁utter	-10.085
On	-10.0852
▁rape	-10.0856
▁Mu	-10.0861
▁product	-10.0866
▁legend	-10.0869
▁Cagney	-10.0869
▁depressing	-10.0869
▁impossible	-10.0869
▁intelligence	-10.0869
▁necessary	-10.0869
▁channel	-10.0869
▁floor	-10.0869
▁freak	-10.0869
▁content	-10.0869
▁semi	-10.0869
▁torture	-10.0869
▁latter	-10.087
▁Laura	-10.087
▁fame	-10.0872
▁adaptation	-10.0873
▁unknown	-10.0873
▁exist	-10.0877
▁joy	-10.0879
▁Life	-10.0879
▁wall	-10.0879
▁Christopher	-10.088
▁erotic	-10.0883
▁creative	-10.0885
▁Big	-10.0887
▁driver	-10.0889
▁model	-10.0891
▁instance	-10.0898
▁forgotten	-10.0899
tory	-10.0931
▁answer	-10.0947
▁pulled	-10.0963
!!!!!	-10.0965
▁Joan	-10.0967
▁Alan	-10.0973
▁Indian	-10.0985
▁followed	-10.0999
▁rule	-10.1
▁trailer	-10.1
▁element	-10.1
▁producer	-10.1003
▁died	-10.1009
▁added	-10.1027
gh	-10.1049
rap	-10.1068
AT	-10.107
▁wondering	-10.1091
▁provide	-10.1137
▁hu	-10.1152
▁provides	-10.1153
▁comp	-10.116
Vi	-10.118
▁promise	-10.1186
▁Di	-10.1187
▁Hav	-10.1189
writer	-10.1205
Z	-10.121
▁burn	-10.127
sp	-10.1275
▁fool	-10.1284
▁virtual	-10.1286
▁fantasy	-10.1286
▁fault	-10.1286
▁mediocre	-10.1286
▁routine	-10.1286
▁Bruce	-10.1286
▁empty	-10.1286
▁praise	-10.1286
▁wild	-10.1286
▁clean	-10.1286
▁blue	-10.1286
▁historical	-10.1286
▁favourite	-10.1286
▁soap	-10.1286
▁1970	-10.1286
▁narrative	-10.1286
▁fellow	-10.1287
▁dying	-10.1287
▁rise	-10.1287
▁tune	-10.1289
▁McG	-10.1289
▁tape	-10.1291
▁boss	-10.1291
▁faci	-10.1292
ten	-10.1293
▁debut	-10.1294
▁Ken	-10.1295
▁agent	-10.1295
▁bottom	-10.1297
▁Long	-10.1298
▁Russian	-10.1298
▁Godzilla	-10.1301
▁somebody	-10.1301
▁mom	-10.1302
▁turning	-10.1303
▁li	-10.1305
▁Asian	-10.1306
ek	-10.131
▁Tony	-10.1312
▁Anyway	-10.1314
▁flicks	-10.1316
play	-10.1342
▁dated	-10.1343
▁("	-10.1345
dle	-10.1346
aw	-10.1352
▁singing	-10.1356
▁wise	-10.1361
▁Many	-10.1374
▁appeared	-10.1379
La	-10.138
▁learned	-10.1388
some	-10.1402
▁god	-10.1404
▁Ed	-10.1409
▁lose	-10.1424
ham	-10.1426
▁filmmaker	-10.1433
▁appearance	-10.1435
000	-10.1438
▁En	-10.1444
▁waiting	-10.1449
very	-10.1472
ink	-10.1488
▁leav	-10.1516
ations	-10.1535
▁pan	-10.1536
?!	-10.1545
ittle	-10.155
▁****	-10.1556
und	-10.1574
Don	-10.1577
▁Mrs	-10.1586
▁k	-10.161
use	-10.1623
ied	-10.1632
▁paint	-10.1633
played	-10.164
20	-10.1645
With	-10.1645
American	-10.1645
mark	-10.1646
Well	-10.1654
▁Grant	-10.1676
▁magic	-10.1676
▁constant	-10.1679
real	-10.1688
▁surprising	-10.1691
away	-10.1692
get	-10.1694
▁whil	-10.1701
cal	-10.1702
▁aspects	-10.1712
▁idiot	-10.1716
▁exploit	-10.1718
▁Lewis	-10.1721
▁Rachel	-10.1721
▁garbage	-10.1721
▁pilot	-10.1721
▁stretch	-10.1721
▁surface	-10.1721
▁AND	-10.1721
▁national	-10.1721
▁paper	-10.1721
▁unexpected	-10.1721
▁baby	-10.1721
▁memory	-10.1721
▁animated	-10.1721
▁heavi	-10.1721
▁intense	-10.1721
▁trust	-10.1721
▁literally	-10.1721
▁pacing	-10.1721
▁company	-10.1721
▁twice	-10.1721
▁France	-10.1721
▁round	-10.1721
▁impact	-10.1721
▁hide	-10.1721
▁everybody	-10.1724
▁reaction	-10.1725
▁insane	-10.1727
▁hotel	-10.1728
▁machine	-10.1733
▁movement	-10.1735
que	-10.1739
▁Jennifer	-10.1739
▁Poli	-10.1741
▁Out	-10.1742
▁equal	-10.1747
▁heroes	-10.1749
▁Queen	-10.175
▁Other	-10.1751
▁flying	-10.1757
▁Best	-10.177
du	-10.1777
▁overly	-10.1777
qui	-10.1778
.....	-10.178
▁talents	-10.179
▁murderer	-10.1791
itz	-10.1795
▁wind	-10.1798
▁grade	-10.18
dam	-10.1843
rad	-10.1854
ration	-10.1869
nder	-10.1877
▁emotion	-10.1878
▁vampire	-10.1884
▁shower	-10.1901
▁sucks	-10.192
rom	-10.1923
berg	-10.1933
▁tears	-10.1936
▁ver	-10.1945
▁Fe	-10.1971
oc	-10.198
str	-10.198
▁wanting	-10.198
ai	-10.1991
▁player	-10.2003
▁tone	-10.201
▁youth	-10.2014
▁handle	-10.2037
▁dies	-10.2053
▁reach	-10.206
▁aliens	-10.2067
▁Red	-10.2074
▁draw	-10.2092
▁thrill	-10.2099
▁blow	-10.21
▁program	-10.2101
Now	-10.2103
▁streets	-10.2113
▁scream	-10.2114
▁resembl	-10.2119
made	-10.2119
▁Williams	-10.2121
▁eat	-10.2123
▁Pi	-10.2123
night	-10.2124
▁10.	-10.2142
▁lo	-10.2143
▁le	-10.2145
▁choices	-10.2153
rey	-10.2167
▁chick	-10.2172
▁Hitchcock	-10.2175
▁executed	-10.2175
▁fascinating	-10.2175
▁imagination	-10.2175
▁individual	-10.2175
▁irritating	-10.2175
▁ordinary	-10.2175
▁perspective	-10.2175
▁regular	-10.2175
▁separate	-10.2175
▁shallow	-10.2175
▁strength	-10.2175
▁suicide	-10.2175
▁target	-10.2175
▁twenty	-10.2175
▁vehicle	-10.2175
▁veteran	-10.2175
▁Earth	-10.2175
▁crappy	-10.2175
▁source	-10.2175
▁maintain	-10.2175
▁tragic	-10.2175
▁Anderson	-10.2175
▁damn	-10.2176
▁Burns	-10.2176
▁information	-10.2176
▁Stella	-10.2176
▁assume	-10.2176
▁charge	-10.2176
▁finger	-10.2177
▁amateurish	-10.2177
▁western	-10.2178
rrow	-10.218
▁frankly	-10.218
▁Please	-10.2181
▁Johnny	-10.2181
▁current	-10.2184
▁gain	-10.2185
▁Take	-10.2186
▁o	-10.2186
▁Daniel	-10.2188
▁Nazi	-10.2188
▁nobody	-10.2188
▁Du	-10.2188
▁Young	-10.2193
▁presentation	-10.2195
▁Robin	-10.2196
▁independent	-10.2198
▁Charle	-10.2201
▁Death	-10.2206
▁captured	-10.2222
▁concerned	-10.2223
▁board	-10.2228
▁key	-10.224
▁planet	-10.2243
cle	-10.2247
▁focuse	-10.2247
▁May	-10.2253
▁mar	-10.2261
▁explained	-10.2263
▁shocking	-10.2269
▁gags	-10.2277
▁Ash	-10.2282
▁murders	-10.2305
AL	-10.2309
net	-10.2313
▁visuals	-10.2318
▁cap	-10.2318
par	-10.2319
At	-10.2322
▁alive	-10.234
▁loss	-10.2341
▁IS	-10.2346
uff	-10.2355
▁criminal	-10.2358
let	-10.236
▁ghost	-10.236
▁location	-10.2361
▁uses	-10.2361
▁student	-10.2363
▁folks	-10.2388
"?	-10.2389
ik	-10.2397
ou	-10.2416
nic	-10.2416
▁woods	-10.2455
▁min	-10.2507
▁arts	-10.2508
▁skills	-10.253
▁rid	-10.2537
X	-10.2539
▁efforts	-10.2541
zz	-10.2542
life	-10.2559
▁pe	-10.2564
When	-10.2576
screen	-10.2576
▁Am	-10.2584
can	-10.2589
▁listen	-10.2602
▁concern	-10.2607
▁pleasant	-10.2609
ization	-10.261
▁seconds	-10.2638
cing	-10.264
▁price	-10.2648
▁Festival	-10.2651
▁account	-10.2651
▁contrast	-10.2651
▁evidence	-10.2651
▁generation	-10.2651
▁parody	-10.2651
▁segment	-10.2651
▁service	-10.2651
▁Through	-10.2651
▁sensitive	-10.2651
▁serial	-10.2651
▁subtitles	-10.2651
▁Neil	-10.2651
▁dump	-10.2651
▁quiet	-10.2651
▁blend	-10.2651
▁challenge	-10.2651
▁dubbed	-10.2651
▁gift	-10.2651
▁wound	-10.2652
▁subplot	-10.2652
▁double	-10.2652
▁Eddie	-10.2652
▁grand	-10.2652
▁merit	-10.2653
▁root	-10.2653
▁witness	-10.2653
▁author	-10.2653
▁edge	-10.2653
▁hack	-10.2653
▁Again	-10.2654
▁dude	-10.2655
▁w	-10.2656
▁Mitchell	-10.2657
▁bank	-10.2657
▁anybody	-10.266
▁nowhere	-10.2661
▁promising	-10.2662
▁finest	-10.2662
▁sight	-10.2665
▁Andrew	-10.2665
▁Kelly	-10.2665
▁rank	-10.2667
▁patient	-10.2668
▁None	-10.267
▁print	-10.2672
▁18	-10.2672
▁satisfying	-10.2673
▁Desp	-10.2674
▁mass	-10.2674
▁impressed	-10.2674
set	-10.2676
▁mindless	-10.2678
▁ruined	-10.2694
▁sequels	-10.2697
▁scenery	-10.2697
▁Mark	-10.2698
▁standards	-10.27
▁bill	-10.2702
▁Cor	-10.2705
▁Dark	-10.2707
▁results	-10.271
▁wearing	-10.2726
car	-10.2731
▁Ch	-10.275
▁speaking	-10.2754
▁quote	-10.2754
▁appealing	-10.2756
dge	-10.2761
▁higher	-10.2766
▁noir	-10.2769
▁featured	-10.2771
▁Boy	-10.278
ja	-10.2784
iv	-10.2798
ov	-10.281
▁mental	-10.2812
ese	-10.2813
rk	-10.2815
Not	-10.2828
Co	-10.2839
▁plant	-10.2856
▁expression	-10.2864
don	-10.2879
▁claim	-10.2881
tter	-10.2888
▁games	-10.289
ible	-10.2905
▁Su	-10.2911
▁wi	-10.2925
▁El	-10.2928
ep	-10.293
▁expressions	-10.2935
▁wa	-10.2973
▁:	-10.2978
▁format	-10.2979
▁v	-10.2985
shi	-10.2989
fl	-10.3002
ker	-10.3013
▁images	-10.3024
body	-10.3029
▁cuts	-10.3032
now	-10.3046
▁owner	-10.3051
▁creatures	-10.3054
ade	-10.3063
till	-10.3074
John	-10.3076
Oh	-10.3107
▁ruin	-10.3107
▁wh	-10.3109
▁Min	-10.3112
bu	-10.3133
▁hopes	-10.3134
▁crash	-10.3143
▁adapt	-10.3147
▁luck	-10.3149
▁favor	-10.315
▁flash	-10.3151
▁Street	-10.3151
	-10.3151
▁South	-10.3151
▁colour	-10.3151
▁degree	-10.3151
▁imaginative	-10.3151
▁private	-10.3151
▁smile	-10.3151
▁Douglas	-10.3151
▁Girl	-10.3151
▁paid	-10.3151
▁shape	-10.3151
▁reject	-10.3151
▁Davis	-10.3151
▁refuse	-10.3151
▁tedious	-10.3151
▁Power	-10.3151
▁Gordon	-10.3151
▁unrealistic	-10.3151
▁protect	-10.3151
▁franchise	-10.3151
▁Dracula	-10.3152
▁army	-10.3152
▁driving	-10.3152
central	-10.3152
▁unintentional	-10.3152
▁earth	-10.3152
▁drop	-10.3153
▁Helen	-10.3153
▁technology	-10.3153
▁Green	-10.3153
▁blah	-10.3154
▁shop	-10.3156
▁cash	-10.3157
▁Stone	-10.3157
▁cutting	-10.3158
▁proper	-10.3158
▁majority	-10.3159
▁pot	-10.3162
▁Mike	-10.3163
▁humanity	-10.3163
▁Brian	-10.3164
▁Sadly	-10.3164
▁OF	-10.3165
▁correct	-10.3165
▁Okay	-10.3169
▁Guy	-10.3169
▁Cage	-10.3172
▁gas	-10.3175
▁rental	-10.3177
▁Everything	-10.3177
▁Really	-10.3179
ory	-10.3189
▁robot	-10.3191
▁Last	-10.3191
▁More	-10.3201
▁Ja	-10.3204
???	-10.3211
ggy	-10.3214
▁tend	-10.3215
▁plane	-10.322
▁`	-10.3221
▁multi	-10.3223
▁sheer	-10.3225
▁shocked	-10.3229
▁End	-10.3229
▁X	-10.3233
▁treated	-10.3238
▁finished	-10.324
erior	-10.3242
SE	-10.3242
ison	-10.3248
ture	-10.325
▁emotionally	-10.3252
nal	-10.3254
▁Being	-10.3264
▁Chan	-10.3268
▁theaters	-10.328
CH	-10.3293
▁names	-10.3294
Jo	-10.3299
ram	-10.3318
▁forever	-10.3325
▁Dur	-10.3337
▁contain	-10.3343
▁Carl	-10.3352
▁lacks	-10.3358
▁Mon	-10.3363
▁Har	-10.3364
▁gut	-10.3375
▁attitude	-10.3396
▁hits	-10.3397
▁breaking	-10.3397
▁cry	-10.3398
▁wr	-10.3399
▁recommended	-10.3432
ama	-10.3446
▁loses	-10.3503
▁fo	-10.3518
▁sw	-10.3519
▁exc	-10.3527
An	-10.3544
!).	-10.3545
▁weeks	-10.356
▁reveal	-10.3571
▁entertain	-10.3572
▁pal	-10.3584
known	-10.3597
natural	-10.3601
town	-10.3603
ile	-10.3604
TV	-10.3606
director	-10.3606
While	-10.3612
although	-10.3613
▁possess	-10.3632
▁calls	-10.3639
▁base	-10.3645
RA	-10.3659
capable	-10.3662
▁fiction	-10.3665
mple	-10.3666
▁junk	-10.3675
▁prefer	-10.3676
▁Phil	-10.3677
▁occur	-10.3677
▁whatsoever	-10.3678
▁Cooper	-10.3678
▁Phantom	-10.3678
▁Texas	-10.3678
▁embarrassing	-10.3678
▁jungle	-10.3678
▁motivation	-10.3678
▁recognize	-10.3678
▁responsible	-10.3678
▁subsequent	-10.3678
▁terribly	-10.3678
▁worry	-10.3678
▁yeah	-10.3678
▁WWII	-10.3678
▁Lucas	-10.3678
▁technical	-10.3678
▁FBI	-10.3678
▁knowledge	-10.3678
▁prevent	-10.3678
▁stunt	-10.3678
▁lesbian	-10.3678
▁court	-10.3678
▁nightmare	-10.3678
▁substance	-10.3678
▁Plus	-10.3678
▁summary	-10.3678
▁cheer	-10.3678
▁identity	-10.3678
▁giant	-10.3678
▁1950	-10.3678
▁opposite	-10.3678
▁Sandler	-10.3678
▁crack	-10.3679
▁judge	-10.368
▁Show	-10.3681
▁range	-10.3681
▁originally	-10.3682
▁flow	-10.3682
▁coach	-10.3683
▁gold	-10.3683
▁Murphy	-10.3684
▁Wilder	-10.3685
▁cartoons	-10.3686
▁teens	-10.3686
▁hang	-10.3686
▁bright	-10.3687
▁stolen	-10.369
▁birth	-10.3692
▁crowd	-10.3694
▁Tong	-10.3694
▁creator	-10.3695
▁afraid	-10.3695
▁depicted	-10.3698
▁foreign	-10.3702
▁edited	-10.3703
▁cable	-10.3704
▁winning	-10.3705
▁clichés	-10.3719
▁talks	-10.372
there	-10.3724
▁belong	-10.373
▁Far	-10.3731
▁grown	-10.3738
▁provided	-10.374
▁craft	-10.3741
▁Ke	-10.3741
▁disappear	-10.3742
▁audiences	-10.3744
▁delivered	-10.3749
unk	-10.3755
▁Mary	-10.3756
▁endless	-10.3764
▁Com	-10.3777
AR	-10.3791
▁watchable	-10.3793
▁revolve	-10.3797
▁involves	-10.3798
wo	-10.3798
rid	-10.3802
▁Sand	-10.3803
▁realized	-10.3803
▁Ki	-10.3812
▁fell	-10.3813
▁Fra	-10.3822
▁hunt	-10.3832
ending	-10.384
▁seat	-10.3844
gging	-10.3844
▁rated	-10.3845
▁aim	-10.3847
▁brilliantly	-10.3866
▁factor	-10.3871
rated	-10.3872
▁demon	-10.3888
efore	-10.389
zo	-10.3896
▁fail	-10.3901
▁Col	-10.3925
▁su	-10.3925
▁monsters	-10.3926
▁accident	-10.3927
▁condition	-10.3936
con	-10.394
▁reference	-10.3943
▁Bar	-10.3944
▁soldier	-10.3945
see	-10.3947
▁teenager	-10.396
▁wo	-10.3962
▁teenagers	-10.3962
▁member	-10.3964
▁Time	-10.3967
they	-10.3971
▁Bu	-10.3999
▁Mel	-10.4002
▁vs	-10.4007
▁locations	-10.401
ttle	-10.4012
▁inf	-10.4021
▁villains	-10.4034
▁numbers	-10.4036
▁auto	-10.4057
key	-10.406
**	-10.4075
▁100	-10.4079
▁leg	-10.409
▁terror	-10.4107
gged	-10.4127
eck	-10.4136
50	-10.4156
`	-10.4156
class	-10.4158
worthy	-10.4161
▁sen	-10.4167
written	-10.4171
▁Lu	-10.4174
▁spit	-10.4181
▁Gi	-10.4182
▁apparent	-10.4192
13	-10.4193
▁receive	-10.4201
▁accurate	-10.4205
served	-10.4206
pro	-10.421
▁Park	-10.4218
▁establish	-10.4224
▁amateur	-10.423
struct	-10.4232
▁thorough	-10.4233
▁School	-10.4233
▁Spanish	-10.4233
▁Vietnam	-10.4233
▁circumstances	-10.4233
▁concert	-10.4233
▁energy	-10.4233
▁execution	-10.4233
▁horribly	-10.4233
▁increasing	-10.4233
▁quirky	-10.4233
▁spoof	-10.4233
▁sympathetic	-10.4233
▁Argento	-10.4233
▁Bogart	-10.4233
▁Fox	-10.4233
▁Taylor	-10.4233
▁Three	-10.4233
▁belief	-10.4233
▁built	-10.4233
▁gross	-10.4233
▁knock	-10.4233
Because	-10.4233
▁excited	-10.4233
▁stinks	-10.4233
▁extent	-10.4233
▁London	-10.4233
lli	-10.4233
▁Simon	-10.4234
▁legendary	-10.4234
▁stuck	-10.4235
▁THIS	-10.4235
conscious	-10.4235
▁connection	-10.4235
▁snow	-10.4236
▁Warner	-10.4236
▁massive	-10.4236
▁Corman	-10.4237
▁seven	-10.4237
▁pants	-10.4238
▁dad	-10.4239
▁neighbor	-10.424
▁Jessica	-10.424
▁Island	-10.4241
▁mission	-10.4245
▁Rose	-10.4247
▁skin	-10.4248
▁numero	-10.4248
IN	-10.4248
▁House	-10.425
▁Look	-10.4255
▁passion	-10.4255
▁colorful	-10.4258
▁blonde	-10.4258
▁Ross	-10.426
▁load	-10.4264
▁Frank	-10.4266
▁held	-10.4266
▁practical	-10.4272
▁boat	-10.4273
▁singer	-10.4275
▁Dan	-10.4275
ult	-10.4278
▁artistic	-10.428
ED	-10.4281
▁Amy	-10.4286
▁clichéd	-10.4302
▁painfully	-10.4311
▁below	-10.4316
▁walks	-10.4319
bel	-10.4319
▁cameo	-10.432
Be	-10.4325
fest	-10.4337
▁Pat	-10.4339
▁Ray	-10.4344
▁spin	-10.4357
▁asked	-10.4368
▁San	-10.4374
▁Paris	-10.4377
▁cur	-10.4385
▁twisted	-10.4394
▁Lot	-10.4415
▁sadly	-10.4434
val	-10.4441
▁dollars	-10.4446
oh	-10.4453
act	-10.4456
▁scare	-10.4469
▁standing	-10.4474
▁meeting	-10.4487
▁reviewers	-10.4491
▁interviews	-10.4498
ripped	-10.4501
mainstream	-10.4502
een	-10.4503
▁Hard	-10.4506
acy	-10.4512
lm	-10.4516
▁classics	-10.4531
▁fu	-10.4533
▁Bob	-10.4536
▁hole	-10.4543
▁sum	-10.4551
▁prim	-10.4552
▁struggl	-10.4552
ken	-10.4568
▁pet	-10.4568
wing	-10.4582
▁believed	-10.4587
▁Sinc	-10.4595
izing	-10.4597
▁warm	-10.4619
▁tear	-10.463
▁answers	-10.4639
ease	-10.464
▁ball	-10.4647
▁Mal	-10.4654
rick	-10.4662
dding	-10.468
cover	-10.4688
▁caus	-10.4689
▁Dog	-10.4702
make	-10.4704
▁attractive	-10.4706
▁Victor	-10.4718
▁pin	-10.4722
▁creat	-10.4723
core	-10.4726
▁Rob	-10.4732
wise	-10.4735
style	-10.4743
However	-10.4747
Why	-10.4748
room	-10.4749
▁def	-10.475
acting	-10.4751
Some	-10.4755
live	-10.4759
▁va	-10.4764
Ro	-10.4775
▁require	-10.4789
▁compare	-10.479
▁Wood	-10.4797
▁bore	-10.48
▁Pre	-10.48
▁Jan	-10.481
▁charisma	-10.482
▁Jeff	-10.4821
▁trap	-10.4821
▁Arthur	-10.4821
▁Brooke	-10.4821
▁California	-10.4821
▁Connery	-10.4821
▁England	-10.4821
▁Hooper	-10.4821
▁Lennon	-10.4821
▁Russell	-10.4821
▁embarrassed	-10.4821
▁excitement	-10.4821
▁flesh	-10.4821
▁generic	-10.4821
▁horrific	-10.4821
▁hundred	-10.4821
▁innocence	-10.4821
▁memories	-10.4821
▁religion	-10.4821
▁remote	-10.4821
▁rubbish	-10.4821
▁scientist	-10.4821
▁unconvincing	-10.4821
▁unnecessary	-10.4821
▁employ	-10.4821
▁kidnapped	-10.4821
▁radio	-10.4821
▁Leslie	-10.4821
▁engage	-10.4821
▁festival	-10.4821
▁status	-10.4821
▁scale	-10.4821
▁adopt	-10.4821
▁slapstick	-10.4821
▁propaganda	-10.4822
▁qu	-10.4822
▁decision	-10.4822
▁dirty	-10.4822
▁hatred	-10.4822
▁Pitt	-10.4822
▁curious	-10.4822
▁fare	-10.4823
▁proud	-10.4823
▁broad	-10.4823
▁relief	-10.4823
▁device	-10.4823
▁discussion	-10.4824
▁appropriate	-10.4824
hidden	-10.4824
▁marry	-10.4824
▁Rodman	-10.4824
ndy	-10.4825
▁media	-10.4825
▁nominate	-10.4825
▁theatre	-10.4825
▁dislike	-10.4826
▁dozen	-10.4826
▁suspenseful	-10.4827
▁Chow	-10.4827
▁dare	-10.4827
▁sake	-10.4828
▁Joseph	-10.4829
▁Barbar	-10.4829
▁everyday	-10.4831
▁Story	-10.4831
▁sympathy	-10.4831
ON	-10.4831
▁Seven	-10.4833
▁pile	-10.4833
▁bland	-10.4835
▁Old	-10.4835
▁12	-10.4836
▁musician	-10.4837
▁Blood	-10.4838
CK	-10.4838
▁stupidity	-10.4839
▁broken	-10.484
▁Ru	-10.4841
▁Emmanuelle	-10.4843
ified	-10.4845
▁Ms	-10.4846
necessarily	-10.4846
▁table	-10.4848
▁traditional	-10.4849
▁blown	-10.4849
▁14	-10.485
▁Kid	-10.4855
▁deserved	-10.4859
cious	-10.486
▁initially	-10.4861
▁Grim	-10.4867
fire	-10.4868
▁hunter	-10.4875
▁Eye	-10.4876
▁magical	-10.4882
yes	-10.4885
cul	-10.4886
pri	-10.4892
▁gu	-10.4898
▁Rand	-10.4903
VERY	-10.4908
wit	-10.4921
▁pun	-10.4925
▁DO	-10.493
▁creates	-10.4932
▁months	-10.4939
▁Bears	-10.4941
▁feelings	-10.4955
▁core	-10.4964
emp	-10.4965
▁angles	-10.4975
▁Brad	-10.4982
▁Bra	-10.4984
specially	-10.4998
▁animals	-10.5012
▁twins	-10.5028
▁slave	-10.5032
▁forth	-10.5038
▁nut	-10.5044
ins	-10.5054
▁featur	-10.5062
▁acts	-10.5069
▁Harris	-10.5074
▁wonderfully	-10.5091
Sa	-10.5096
▁el	-10.5104
▁suck	-10.5125
▁interview	-10.5156
▁folk	-10.5158
▁helped	-10.5181
▁cla	-10.5183
▁nicely	-10.5186
ella	-10.5188
▁ghosts	-10.5196
▁Ice	-10.5196
,000	-10.5226
▁Any	-10.5228
▁Up	-10.5233
▁ring	-10.5243
▁ga	-10.5253
bert	-10.5253
ook	-10.5254
win	-10.5258
▁Ko	-10.5274
▁thinks	-10.5279
▁Stan	-10.5288
▁mi	-10.5294
ose	-10.5301
wood	-10.5331
▁Si	-10.5353
▁types	-10.5363
▁pack	-10.5363
▁SO	-10.5367
Overall	-10.537
▁complain	-10.537
except	-10.5371
Also	-10.5371
▁Men	-10.5373
film	-10.5373
plot	-10.5373
Still	-10.5378
How	-10.5381
▁tour	-10.5384
▁Rod	-10.5392
▁pieces	-10.5394
▁mask	-10.5401
▁Julie	-10.5402
▁initial	-10.5404
▁Have	-10.5406
▁pos	-10.5419
▁realise	-10.5423
▁Rock	-10.5426
▁emerg	-10.5428
fa	-10.5431
▁length	-10.5438
▁report	-10.544
▁cruel	-10.5445
▁abandon	-10.5446
▁1940	-10.5446
▁Charlotte	-10.5446
▁Lloyd	-10.5446
▁Meanwhile	-10.5446
▁Streep	-10.5446
▁associate	-10.5446
▁behavior	-10.5446
▁magazine	-10.5446
▁poignant	-10.5446
▁striking	-10.5446
▁stylish	-10.5446
▁surreal	-10.5446
▁ticket	-10.5446
▁clown	-10.5446
▁dinner	-10.5446
▁dreadful	-10.5446
▁liberal	-10.5446
umbling	-10.5446
▁Betty	-10.5446
▁horse	-10.5446
▁command	-10.5446
▁goofy	-10.5446
▁river	-10.5446
▁defeat	-10.5446
▁vague	-10.5447
▁THAT	-10.5447
▁path	-10.5447
▁speed	-10.5447
▁devil	-10.5447
▁Basically	-10.5447
▁baseball	-10.5447
▁Tremors	-10.5447
▁Albert	-10.5447
▁elder	-10.5447
▁recall	-10.5447
▁criticism	-10.5447
▁thug	-10.5447
▁committed	-10.5448
▁cell	-10.5448
▁transform	-10.5448
▁pressure	-10.5448
▁witty	-10.5448
▁rough	-10.5448
▁worthwhile	-10.5448
▁maniac	-10.5448
▁hip	-10.5449
▁European	-10.5449
▁guest	-10.545
▁insight	-10.545
▁friendship	-10.545
▁blast	-10.5451
▁photograph	-10.5452
▁idiotic	-10.5453
▁uncle	-10.5454
▁Captain	-10.5454
▁psychological	-10.5454
▁Turner	-10.5454
▁WW	-10.5454
▁Much	-10.5456
ctor	-10.5456
▁attract	-10.5457
▁conventional	-10.5459
▁Certainly	-10.5459
▁Which	-10.5459
▁Angel	-10.5459
▁porno	-10.546
▁Danny	-10.546
ering	-10.5461
▁identif	-10.5461
▁remarkable	-10.5462
▁thank	-10.5463
▁frightening	-10.5464
▁USA	-10.5465
EN	-10.5465
▁Back	-10.5467
▁Lou	-10.5471
▁Full	-10.5471
▁Jimmy	-10.5471
▁Rocky	-10.5471
▁rob	-10.5473
▁fictional	-10.5479
▁shut	-10.5481
▁disgusting	-10.5484
▁sharp	-10.5489
▁limited	-10.5489
hang	-10.549
▁raised	-10.5493
▁photographed	-10.5494
hard	-10.5499
▁justice	-10.5501
▁born	-10.5505
▁field	-10.5513
▁tame	-10.5527
▁Sch	-10.5533
▁deeply	-10.5539
▁naturally	-10.555
chi	-10.5558
▁Izo	-10.5558
▁beg	-10.5566
▁trick	-10.5568
▁cars	-10.5574
▁superbly	-10.5575
any	-10.5576
nyone	-10.5584
Direct	-10.5587
▁bin	-10.5601
▁portraying	-10.5603
▁sun	-10.5605
▁saved	-10.5622
▁Lily	-10.5623
▁topic	-10.5628
▁reache	-10.5638
▁ja	-10.5644
▁ven	-10.565
▁lower	-10.5651
▁YOU	-10.5654
▁Bre	-10.5655
▁Gro	-10.5656
▁flashbacks	-10.5669
atherin	-10.5676
ona	-10.5683
▁dealing	-10.5687
▁Brothers	-10.5688
gs	-10.5722
▁na	-10.573
▁rec	-10.5755
▁mini	-10.5759
ura	-10.5771
▁lacking	-10.578
▁references	-10.5787
▁shak	-10.5791
how	-10.5792
▁investigate	-10.5798
▁accidental	-10.5808
▁heads	-10.5809
action	-10.5814
▁arrive	-10.5817
unch	-10.5825
▁costume	-10.5828
gar	-10.5839
▁Bas	-10.5841
lie	-10.5857
▁matters	-10.5862
actor	-10.5871
▁reviewer	-10.5892
▁rules	-10.5899
▁pur	-10.5899
ability	-10.5905
▁trailers	-10.5908
roll	-10.5921
itch	-10.5943
▁deals	-10.5944
▁ham	-10.597
▁met	-10.5971
ec	-10.5982
▁tricks	-10.5991
▁del	-10.6
▁hopeful	-10.6002
where	-10.6002
oul	-10.6002
▁logic	-10.6003
put	-10.6004
▁repeat	-10.6005
▁Per	-10.6005
fu	-10.6012
iz	-10.602
▁lovers	-10.6034
Unfortunately	-10.6037
Like	-10.6038
year	-10.6038
break	-10.6039
board	-10.6041
▁bo	-10.6042
ax	-10.6048
▁depend	-10.6054
especially	-10.6063
▁Die	-10.607
▁attend	-10.6073
▁bears	-10.6077
▁rescue	-10.608
▁explore	-10.608
▁abuse	-10.6082
▁Han	-10.6086
▁broke	-10.6095
▁grip	-10.6098
▁Ex	-10.6107
▁corrupt	-10.6109
▁authentic	-10.611
▁speaks	-10.6112
▁Coppola	-10.6113
▁Family	-10.6113
▁Reaper	-10.6113
▁Shields	-10.6113
▁Thomas	-10.6113
▁abilities	-10.6113
▁disbelief	-10.6113
▁professor	-10.6113
▁qualities	-10.6113
▁sacrifice	-10.6113
▁smoking	-10.6113
▁strict	-10.6113
▁treasure	-10.6113
▁turkey	-10.6113
▁worrie	-10.6113
▁VHS	-10.6113
▁theatrical	-10.6113
▁Sloan	-10.6113
▁Smart	-10.6113
▁minimal	-10.6113
▁outrageous	-10.6113
▁false	-10.6113
▁smell	-10.6113
▁comedian	-10.6113
▁Space	-10.6113
▁hysterical	-10.6113
▁priest	-10.6113
▁demand	-10.6113
▁plague	-10.6113
▁funeral	-10.6113
▁monkey	-10.6113
▁Chainsaw	-10.6113
▁States	-10.6113
▁Otherwise	-10.6113
▁football	-10.6113
▁contact	-10.6113
▁1980	-10.6114
▁combination	-10.6114
▁stumble	-10.6114
▁Ku	-10.6114
▁continuity	-10.6114
▁weekend	-10.6115
▁window	-10.6115
(19	-10.6115
▁Kong	-10.6115
▁science	-10.6116
▁Thai	-10.6116
▁underrated	-10.6116
▁lake	-10.6117
▁handsome	-10.6117
chasing	-10.6117
▁contrived	-10.6118
▁antics	-10.6118
▁priceless	-10.6118
▁trite	-10.6118
▁block	-10.6118
▁statement	-10.6119
▁function	-10.612
▁buff	-10.612
▁Duck	-10.6121
▁Burt	-10.6122
▁express	-10.6123
▁Rice	-10.6125
▁Gene	-10.6125
▁African	-10.6126
▁Cannon	-10.6127
▁fish	-10.6127
▁flop	-10.6128
▁Gun	-10.613
▁cringe	-10.613
MA	-10.6132
▁Qui	-10.6132
▁Sci	-10.6135
▁upset	-10.614
▁perfection	-10.6141
▁Sally	-10.6142
▁occasionally	-10.6148
▁Yeah	-10.6148
boy	-10.615
▁critical	-10.615
▁Run	-10.6152
▁originality	-10.6154
▁Wow	-10.6155
face	-10.6164
▁Friday	-10.6164
▁ancient	-10.6166
▁inept	-10.6171
law	-10.6173
▁Pan	-10.6177
Con	-10.6179
▁scared	-10.6183
▁Gold	-10.6185
robably	-10.6192
▁candy	-10.6199
▁described	-10.6202
ora	-10.6205
▁monks	-10.6206
▁screening	-10.6206
▁Too	-10.6207
▁Get	-10.6217
▁bothered	-10.6221
ES	-10.6228
▁successfully	-10.6241
▁curse	-10.6243
ify	-10.6245
▁makeup	-10.6247
port	-10.6249
▁ages	-10.6254
▁previously	-10.6257
▁suffering	-10.6263
▁Cher	-10.627
teen	-10.6278
▁stone	-10.6284
▁UK	-10.6298
▁lies	-10.6303
▁spoilers	-10.6312
ux	-10.6321
▁onto	-10.633
▁hearing	-10.6334
▁intentions	-10.6342
▁rap	-10.6342
▁beating	-10.6343
▁included	-10.6348
Man	-10.6355
▁serves	-10.6358
2)	-10.6363
▁ready	-10.6367
▁primar	-10.6375
70	-10.6398
filled	-10.6401
▁hat	-10.6403
▁Caro	-10.6423
▁Fu	-10.6432
▁/>1	-10.6436
ew	-10.645
▁Americans	-10.6453
▁sea	-10.6458
▁scares	-10.6459
▁pen	-10.6463
Le	-10.6474
▁admire	-10.6476
▁wood	-10.6479
▁opens	-10.6493
kle	-10.6507
▁returns	-10.6508
▁protagonist	-10.6532
▁screenwriter	-10.6538
gotten	-10.6545
ished	-10.6548
▁phone	-10.6555
▁Win	-10.6559
lia	-10.6579
▁Vic	-10.6586
▁bed	-10.66
▁se	-10.6618
sie	-10.662
▁myth	-10.6622
bar	-10.6634
dia	-10.6638
▁com	-10.6657
ung	-10.6661
▁chases	-10.6671
ans	-10.6676
ential	-10.6685
▁cops	-10.67
lock	-10.6708
▁powers	-10.6715
read	-10.672
▁Hi	-10.6722
▁mistakes	-10.6727
▁Ling	-10.6736
hero	-10.6739
▁photo	-10.6741
▁IN	-10.6743
hood	-10.6747
Dark	-10.675
After	-10.6752
Will	-10.6752
just	-10.6753
turn	-10.6755
Two	-10.6757
/10	-10.676
anne	-10.676
▁drink	-10.6766
▁fe	-10.6771
▁slo	-10.6781
She	-10.6786
▁Lea	-10.6787
▁Are	-10.679
▁tack	-10.6793
handed	-10.6794
▁demons	-10.6794
ari	-10.6803
▁combine	-10.6819
▁punch	-10.6823
▁levels	-10.6823
▁reflect	-10.6823
▁Super	-10.6825
▁consist	-10.6826
▁commit	-10.6826
▁Japan	-10.6827
▁wanna	-10.6827
▁Chaplin	-10.6827
▁Elizabeth	-10.6827
▁Lynch	-10.6827
▁Washington	-10.6827
▁conversation	-10.6827
▁disagree	-10.6827
▁explanation	-10.6827
▁nowadays	-10.6827
▁offensive	-10.6827
▁strike	-10.6827
_	-10.6827
climactic	-10.6827
tuitous	-10.6827
▁Beatles	-10.6827
▁Cowboy	-10.6827
▁Massacre	-10.6827
▁Matthau	-10.6827
▁Phantasm	-10.6827
▁Seagal	-10.6827
▁Terminator	-10.6827
▁atmospheric	-10.6827
▁benefit	-10.6827
▁cheese	-10.6827
▁club	-10.6827
▁defense	-10.6827
▁fabulous	-10.6827
▁families	-10.6827
▁glimpse	-10.6827
▁ludicrous	-10.6827
▁miserably	-10.6827
▁parallel	-10.6827
▁puzzle	-10.6827
▁regret	-10.6827
▁security	-10.6827
▁sneak	-10.6827
▁species	-10.6827
▁abduct	-10.6827
▁balance	-10.6827
▁border	-10.6827
▁measure	-10.6827
▁motive	-10.6827
▁uninteresting	-10.6827
▁cultural	-10.6827
▁steam	-10.6827
▁zero	-10.6827
▁Holmes	-10.6827
▁grim	-10.6827
▁stereotypical	-10.6827
▁Moore	-10.6827
▁asleep	-10.6827
▁Ryan	-10.6827
▁desert	-10.6827
▁tiresome	-10.6827
▁jerk	-10.6827
▁stopped	-10.6827
▁wealth	-10.6828
▁mountain	-10.6828
▁feet	-10.6828
▁spectacular	-10.6828
▁Eric	-10.6828
▁arms	-10.6828
▁Patrick	-10.6828
▁therefore	-10.6828
▁link	-10.6828
▁loving	-10.6828
▁label	-10.6828
▁broadcast	-10.6828
▁forgot	-10.6828
▁population	-10.6829
▁research	-10.6829
▁Universal	-10.6829
▁Kyle	-10.6829
▁Stephen	-10.6829
▁raw	-10.6829
▁China	-10.6829
▁spark	-10.683
▁Broad	-10.683
▁mansion	-10.683
▁underlying	-10.683
▁uncomfortable	-10.683
▁Unlike	-10.683
▁3/10	-10.683
▁naive	-10.683
▁responsibility	-10.683
ville	-10.683
▁philosophy	-10.6831
▁dangerous	-10.6831
▁hostage	-10.6831
▁attraction	-10.6832
▁besides	-10.6832
▁treatment	-10.6832
ouble	-10.6832
▁16	-10.6833
▁editor	-10.6834
▁Hammer	-10.6836
▁documentaries	-10.6836
▁anywhere	-10.6837
▁Hal	-10.6838
▁sexuality	-10.6839
lanche	-10.6839
▁package	-10.6839
▁Tobe	-10.684
▁Mario	-10.684
▁page	-10.684
▁corny	-10.6841
▁nonsense	-10.6842
▁Sometimes	-10.6842
▁Dick	-10.6842
▁earn	-10.6843
▁beast	-10.6844
contemporary	-10.6846
▁swear	-10.6846
▁Terry	-10.6847
▁Worth	-10.6848
▁delightful	-10.6848
▁humorous	-10.6849
▁provok	-10.6849
▁forgive	-10.6849
▁cow	-10.685
▁lonely	-10.6851
▁letter	-10.6852
▁Sean	-10.6852
▁Second	-10.6853
▁Hall	-10.6854
▁Dean	-10.6854
hem	-10.6856
▁Carol	-10.6856
retty	-10.6857
▁fate	-10.6857
▁Does	-10.686
▁Tall	-10.6861
▁insist	-10.6864
▁realism	-10.6864
▁position	-10.6865
▁touches	-10.6866
▁lifted	-10.6866
▁raise	-10.6867
▁pound	-10.6869
▁warned	-10.6871
▁Candyman	-10.6872
▁lesson	-10.6873
▁feed	-10.6874
ches	-10.6875
▁Jr	-10.6876
▁Avoid	-10.6877
▁sucked	-10.688
▁Law	-10.6882
▁handled	-10.6888
kh	-10.6894
▁Chad	-10.6895
dri	-10.6899
▁gory	-10.6899
▁Pri	-10.6904
▁believes	-10.6904
▁Eve	-10.6905
▁dim	-10.6909
▁lying	-10.6909
LE	-10.6912
▁driven	-10.6918
rene	-10.6919
▁stronger	-10.6927
▁rarely	-10.6927
▁Ge	-10.6928
▁Bea	-10.6937
lap	-10.6948
▁Dave	-10.6948
ford	-10.6949
▁offering	-10.6953
hop	-10.6953
▁battles	-10.6965
▁weapons	-10.6972
(..	-10.6972
▁Clare	-10.6973
▁Ang	-10.6991
1)	-10.6993
▁LA	-10.7012
rage	-10.7013
nnie	-10.7014
▁Pu	-10.7015
▁Hero	-10.702
▁persona	-10.703
▁stereotypes	-10.7039
▁Dis	-10.704
▁Ted	-10.7052
▁ideal	-10.7063
pper	-10.7064
▁Jon	-10.7064
▁beach	-10.7069
▁/	-10.7077
AM	-10.7081
▁argue	-10.7092
▁strongly	-10.7095
▁boot	-10.71
uk	-10.711
▁Norma	-10.7133
under	-10.7138
▁hype	-10.7151
ised	-10.7151
earing	-10.7164
▁fly	-10.7164
▁gal	-10.7189
▁hi	-10.7197
field	-10.72
▁Bette	-10.7207
Right	-10.7219
▁bu	-10.7223
characterization	-10.7233
▁formula	-10.7243
▁Sco	-10.7245
NE	-10.7251
pic	-10.7253
▁bra	-10.7258
??	-10.7263
ept	-10.7267
▁Boys	-10.7278
▁Jun	-10.7282
▁practice	-10.7288
▁criminals	-10.729
▁bag	-10.7291
▁Brother	-10.7304
▁dollar	-10.7308
lay	-10.7309
▁qua	-10.7321
GE	-10.7328
▁convince	-10.7331
▁humans	-10.7338
q	-10.7344
ular	-10.7362
▁North	-10.7369
hia	-10.7372
▁include	-10.7392
yle	-10.7404
▁bits	-10.7408
▁colors	-10.7422
brow	-10.7449
▁***	-10.7454
ez	-10.7467
▁pu	-10.7488
▁**	-10.7492
iest	-10.7495
▁guns	-10.7495
▁Los	-10.7502
▁continues	-10.7514
They	-10.7515
view	-10.7517
Although	-10.752
First	-10.7521
horror	-10.7521
something	-10.7521
craft	-10.7522
Star	-10.7522
forward	-10.7523
▁EVER	-10.7524
▁allows	-10.7525
Director	-10.7529
▁pretend	-10.7535
miss	-10.7535
▁Kar	-10.7543
ility	-10.7546
▁ultimate	-10.7555
▁pla	-10.7555
▁Sta	-10.7557
▁Sen	-10.7561
▁tradition	-10.757
▁Julia	-10.7575
▁improve	-10.758
▁exact	-10.7581
etween	-10.7592
war	-10.7594
▁drugs	-10.7594
▁homosexual	-10.7594
▁danger	-10.7594
ublic	-10.7594
▁safe	-10.7595
▁psycho	-10.7595
▁eight	-10.7596
▁education	-10.7597
▁Bebop	-10.7597
▁Jonathan	-10.7597
▁Kennedy	-10.7597
▁Meryl	-10.7597
▁Mexican	-10.7597
▁Sunshine	-10.7597
▁assassin	-10.7597
▁breath	-10.7597
▁cigarette	-10.7597
▁department	-10.7597
▁dwarf	-10.7597
▁gimmick	-10.7597
▁gritty	-10.7597
▁inspiration	-10.7597
▁league	-10.7597
▁metaphor	-10.7597
▁morning	-10.7597
▁obnoxious	-10.7597
▁portrait	-10.7597
▁response	-10.7597
▁ruthless	-10.7597
▁smooth	-10.7597
▁stinker	-10.7597
▁vulgar	-10.7597
Brazil	-10.7597
▁Flynn	-10.7597
▁Grace	-10.7597
▁Hayden	-10.7597
▁Kersey	-10.7597
▁Tarantino	-10.7597
▁Vega	-10.7597
▁betray	-10.7597
▁cardboard	-10.7597
▁scheme	-10.7597
▁welcome	-10.7597
▁Interesting	-10.7597
▁basis	-10.7597
▁nucle	-10.7597
▁Harvey	-10.7597
▁distinct	-10.7597
▁fortune	-10.7597
▁harsh	-10.7597
▁BAD	-10.7597
▁firm	-10.7597
▁Worst	-10.7597
olph	-10.7597
▁Count	-10.7597
▁expert	-10.7597
▁prior	-10.7597
▁shift	-10.7597
▁Morgan	-10.7597
▁Warren	-10.7597
▁lawyer	-10.7597
▁Bernie	-10.7597
▁blank	-10.7597
▁transport	-10.7597
▁profound	-10.7597
▁tongue	-10.7597
▁bucks	-10.7597
▁distance	-10.7597
▁jazz	-10.7597
▁queen	-10.7597
▁solve	-10.7597
▁spoke	-10.7597
▁pray	-10.7597
▁cannibal	-10.7597
▁Columbo	-10.7598
▁bond	-10.7598
▁Dunne	-10.7598
▁Duke	-10.7598
▁freedom	-10.7598
▁crude	-10.7598
▁clock	-10.7598
▁narration	-10.7598
▁financ	-10.7598
▁charismatic	-10.7599
▁entry	-10.7599
▁toilet	-10.7599
▁sentence	-10.7599
▁depiction	-10.7599
▁personalities	-10.7599
▁wake	-10.7599
▁boredom	-10.7599
▁cheat	-10.7599
▁elsewhere	-10.76
▁addiction	-10.76
▁MTV	-10.76
▁sadistic	-10.76
▁skip	-10.7601
▁urge	-10.7602
▁insert	-10.7603
▁Dante	-10.7604
▁chill	-10.7604
▁ignore	-10.7604
▁faithful	-10.7606
▁forgettable	-10.7606
▁Max	-10.7607
▁Angeles	-10.7608
▁moon	-10.7608
▁produce	-10.7608
▁spell	-10.7609
▁hom	-10.7612
▁Bronson	-10.7612
▁Horror	-10.7612
▁Reno	-10.7613
▁grave	-10.7617
▁manager	-10.7617
▁Cinema	-10.7618
▁deliberately	-10.7619
▁guilty	-10.7619
▁overlooked	-10.7619
▁carefully	-10.762
▁arrested	-10.7624
▁replaced	-10.7625
▁Nation	-10.7625
▁cave	-10.7625
▁reporter	-10.7626
▁PG	-10.7628
▁bat	-10.7629
▁saving	-10.7637
▁Donald	-10.7638
▁combined	-10.7641
▁Crow	-10.7653
▁revealed	-10.7664
▁contained	-10.7666
▁desired	-10.7668
▁dancer	-10.7668
▁11	-10.7681
▁Cary	-10.7686
▁hanging	-10.7688
Side	-10.7692
▁kicked	-10.7694
mu	-10.7695
▁resident	-10.7698
▁directly	-10.7699
▁screaming	-10.7702
▁lay	-10.7703
▁accepted	-10.7704
▁eating	-10.7706
IG	-10.7711
▁Play	-10.7723
▁alike	-10.773
▁reduc	-10.7735
▁finale	-10.7738
▁recording	-10.7743
have	-10.7747
▁performers	-10.776
ature	-10.7762
▁Pro	-10.7771
▁Hills	-10.7778
▁rav	-10.7784
eva	-10.7788
shir	-10.7794
east	-10.7794
ament	-10.7797
▁aired	-10.7799
▁unfolds	-10.7802
▁killers	-10.7809
▁exceptional	-10.7813
hearted	-10.7818
▁Roberts	-10.7827
cop	-10.7829
Of	-10.7831
▁Rid	-10.7835
▁views	-10.7856
▁Ram	-10.786
ET	-10.7861
▁Ni	-10.7866
▁Chi	-10.7869
▁objects	-10.7875
ilver	-10.7878
▁unit	-10.7886
ants	-10.7889
▁dealer	-10.7896
tail	-10.7917
▁press	-10.7926
ups	-10.7954
▁ice	-10.7958
▁50'	-10.7975
vice	-10.799
▁inner	-10.7992
▁nail	-10.8008
spect	-10.8012
tha	-10.8029
▁bla	-10.8031
stream	-10.8034
gal	-10.8037
▁RE	-10.8039
▁reasonabl	-10.8058
▁TO	-10.806
▁refer	-10.8064
▁claims	-10.8065
apt	-10.8081
ple	-10.8085
▁flaw	-10.8095
▁Wars	-10.8097
zing	-10.8099
▁serve	-10.8102
11	-10.8116
▁deserve	-10.8119
▁object	-10.8133
▁zombie	-10.8133
▁Wo	-10.8135
iddle	-10.8135
gate	-10.8135
▁flashback	-10.8139
stop	-10.8139
▁span	-10.8162
▁Indians	-10.8175
▁sla	-10.8181
▁loves	-10.8192
ffe	-10.8192
▁parent	-10.8199
▁decades	-10.8207
void	-10.8208
▁theory	-10.8209
▁medic	-10.821
his	-10.8211
▁Ron	-10.822
come	-10.8244
uous	-10.8247
▁via	-10.8248
▁extras	-10.8255
rock	-10.8262
▁rat	-10.8273
▁twin	-10.8276
▁Kan	-10.8282
look	-10.8288
▁spoil	-10.8302
▁fighter	-10.8302
mid	-10.8303
▁Bay	-10.8327
most	-10.8329
dimensional	-10.8351
Good	-10.8354
born	-10.8355
point	-10.8355
easy	-10.8356
minute	-10.8357
▁Set	-10.8361
dition	-10.8368
oma	-10.8375
▁strip	-10.8376
shot	-10.8377
▁affect	-10.838
▁states	-10.8381
▁lift	-10.8386
▁screw	-10.8387
▁sudden	-10.8388
ILL	-10.8388
▁hook	-10.8391
▁blond	-10.8392
▁occasional	-10.8393
stin	-10.8398
▁Penn	-10.8405
▁Ab	-10.8405
▁chose	-10.8415
▁Rick	-10.8418
▁crush	-10.842
▁(200	-10.8423
▁clue	-10.8426
▁bount	-10.8428
▁melodrama	-10.8428
▁1930	-10.843
▁context	-10.843
▁inhabit	-10.843
▁reminiscen	-10.843
▁sarcastic	-10.843
▁universe	-10.843
pocalypse	-10.843
▁Apparently	-10.843
▁Araki	-10.843
▁Colombia	-10.843
▁Personally	-10.843
▁Spielberg	-10.843
▁Spike	-10.843
▁Yimou	-10.843
▁amazed	-10.843
▁custom	-10.843
▁determine	-10.843
▁dilemma	-10.843
▁elegant	-10.843
▁president	-10.843
▁principal	-10.843
▁sinister	-10.843
▁technique	-10.843
▁terrifying	-10.843
▁thousand	-10.843
▁uniform	-10.843
▁urban	-10.843
▁werewolf	-10.843
▁Brown	-10.843
▁HBO	-10.843
▁Perfect	-10.843
▁Short	-10.843
▁ambiguous	-10.843
▁essence	-10.843
▁lazy	-10.843
▁peace	-10.843
▁slick	-10.843
▁cabin	-10.843
▁structure	-10.843
▁green	-10.843
▁ultra	-10.843
▁Emmy	-10.843
▁daily	-10.843
▁menacing	-10.843
▁cousin	-10.843
▁risk	-10.843
▁afford	-10.843
▁pool	-10.843
▁foot	-10.843
▁laid	-10.843
▁tiny	-10.843
▁hurt	-10.843
▁conservative	-10.843
"...	-10.843
▁multiple	-10.843
▁vivid	-10.843
▁chapter	-10.843
▁switch	-10.843
▁wreck	-10.843
▁alright	-10.843
Porky	-10.8431
▁vicious	-10.8431
▁Nancy	-10.8431
bodies	-10.8431
▁disguise	-10.8431
▁Hyde	-10.8431
za	-10.8431
▁Kitty	-10.8431
▁breast	-10.8431
▁Strange	-10.8431
▁Judge	-10.8431
▁Vincent	-10.8431
▁Irish	-10.8431
▁contract	-10.8431
▁seduc	-10.8432
▁underground	-10.8432
▁NYC	-10.8432
▁1/10	-10.8432
▁depressed	-10.8432
▁invest	-10.8432
▁jail	-10.8433
▁Mantle	-10.8433
▁Todd	-10.8433
▁mock	-10.8434
▁Everyone	-10.8434
▁Betti	-10.8434
▁achievement	-10.8434
hrow	-10.8434
▁CBS	-10.8434
▁oil	-10.8435
▁transformation	-10.8435
▁Under	-10.8435
▁rain	-10.8435
▁string	-10.8435
▁eerie	-10.8435
agger	-10.8435
▁cancel	-10.8435
▁nine	-10.8436
▁addict	-10.8437
▁Master	-10.8437
▁letdown	-10.8437
▁Over	-10.8439
▁Bond	-10.8439
▁Francis	-10.8439
▁scratch	-10.844
▁Wayne	-10.8442
▁robbery	-10.8442
▁dry	-10.8443
▁clothes	-10.8443
ments	-10.8445
▁laughter	-10.8446
▁intellectual	-10.8447
▁Prince	-10.8448
▁Angela	-10.8448
▁oppos	-10.845
▁flu	-10.845
▁sink	-10.845
▁frequently	-10.845
▁corner	-10.8451
▁chosen	-10.8451
▁Belle	-10.8452
▁gap	-10.8454
▁Halloween	-10.8454
▁Acting	-10.8454
▁Susan	-10.8455
▁hy	-10.8458
▁Dawn	-10.8463
▁complicated	-10.8466
▁Cop	-10.8467
▁Jaws	-10.8468
▁blo	-10.8468
▁Force	-10.8468
aged	-10.8469
▁survivors	-10.847
▁teach	-10.847
▁haunting	-10.847
▁connected	-10.8472
▁SPOILERS	-10.8472
▁Meg	-10.8473
▁needless	-10.8474
▁screwed	-10.8476
▁flawed	-10.8477
▁Page	-10.8477
▁received	-10.8479
▁cock	-10.8482
▁Anth	-10.8488
▁warning	-10.849
▁SP	-10.8493
▁prime	-10.8498
▁intention	-10.8509
▁quit	-10.8511
▁van	-10.8516
liners	-10.8517
ario	-10.8519
OW	-10.8525
▁Ow	-10.8525
▁destroyed	-10.8527
▁revealing	-10.853
▁stated	-10.853
▁crying	-10.8531
▁Jud	-10.8532
▁loser	-10.8533
Hav	-10.8534
▁ST	-10.8541
▁Lam	-10.8542
▁los	-10.8543
struck	-10.8544
▁explosions	-10.8548
▁Things	-10.8548
▁performed	-10.8552
▁event	-10.8553
PS	-10.8559
gle	-10.857
▁organiz	-10.8576
▁abs	-10.8584
▁bare	-10.8585
▁caused	-10.8585
▁anger	-10.8592
tie	-10.8595
▁Ann	-10.8596
▁smaller	-10.8606
Ar	-10.8609
lar	-10.8611
▁194	-10.8611
▁dig	-10.8615
▁im	-10.8617
illa	-10.8631
▁wit	-10.8639
ille	-10.8644
love	-10.8679
▁poster	-10.8679
lew	-10.8685
everly	-10.8686
▁manipulat	-10.8689
▁Gr	-10.8693
▁Amazonia	-10.8703
▁surroundings	-10.8707
stair	-10.873
▁Fun	-10.8734
riff	-10.8757
▁Yo	-10.877
ica	-10.8771
▁imitat	-10.8778
▁screenwriters	-10.8788
▁protagonists	-10.8788
▁size	-10.879
yl	-10.8798
new	-10.8802
▁lights	-10.8808
ett	-10.8809
dec	-10.8824
▁spar	-10.8828
▁dogs	-10.8836
▁experiences	-10.8841
▁warn	-10.8844
▁Ford	-10.8859
▁clos	-10.8878
cur	-10.888
........	-10.8893
▁Lor	-10.8895
▁ya	-10.89
Li	-10.89
▁hearts	-10.8901
uel	-10.8905
Unless	-10.8906
▁videos	-10.8923
▁attitudes	-10.8924
▁critic	-10.8925
▁Pop	-10.8931
▁Lange	-10.8949
▁Sav	-10.8955
oon	-10.8972
▁SH	-10.8972
signed	-10.8984
Du	-10.8991
take	-10.9005
▁brave	-10.9025
▁Cap	-10.9027
▁animal	-10.9048
▁term	-10.9052
Go	-10.9061
▁Murder	-10.9074
then	-10.9079
lor	-10.9081
▁surrounding	-10.9081
▁Bell	-10.9089
▁Rogers	-10.9107
▁shar	-10.9113
▁Fla	-10.9113
▁notion	-10.9119
atche	-10.9124
▁Pet	-10.9132
▁lit	-10.9142
itting	-10.9151
▁sides	-10.9167
▁fac	-10.9179
▁Live	-10.9184
?).	-10.9201
je	-10.9202
Q	-10.9216
▁plans	-10.9218
gan	-10.9219
▁Flo	-10.922
hardcore	-10.9227
▁chain	-10.9239
▁edit	-10.9251
▁farm	-10.9252
direct	-10.9257
aware	-10.926
word	-10.9262
piece	-10.9263
Great	-10.9263
video	-10.9263
maybe	-10.9263
perhaps	-10.9263
daughter	-10.9263
about	-10.9264
called	-10.9265
father	-10.9266
why	-10.9269
▁Dream	-10.9269
title	-10.9273
gene	-10.9274
ancing	-10.9276
power	-10.9276
ji	-10.9278
ppy	-10.928
talk	-10.9286
▁impress	-10.9289
▁connect	-10.929
Bad	-10.929
War	-10.9292
▁drown	-10.9293
▁limit	-10.9294
▁trans	-10.93
▁Come	-10.9304
▁slu	-10.9308
▁remarkabl	-10.9317
▁Clark	-10.9317
▁stole	-10.9321
▁preach	-10.9323
▁faith	-10.9327
▁experiment	-10.933
▁Unit	-10.9331
Ver	-10.9334
▁predict	-10.9334
▁confess	-10.9335
▁translat	-10.9335
▁discuss	-10.9335
Yes	-10.9336
▁Curt	-10.9337
ANT	-10.9337
▁Colum	-10.9338
▁relation	-10.9339
▁Saturday	-10.9339
▁Sinatra	-10.9339
▁intensity	-10.9339
▁neglect	-10.9339
▁suspend	-10.9339
]	-10.9339
ternational	-10.9339
▁2003	-10.9339
▁Crystal	-10.9339
▁Duvall	-10.9339
▁Eventually	-10.9339
▁Freakazoid	-10.9339
▁Kubrick	-10.9339
▁Lawrence	-10.9339
▁Lombard	-10.9339
▁Miike	-10.9339
▁Paradine	-10.9339
▁Reynolds	-10.9339
▁Spider	-10.9339
▁Stewart	-10.9339
▁Thompson	-10.9339
▁aforementioned	-10.9339
▁appreciation	-10.9339
▁attached	-10.9339
▁bargain	-10.9339
▁cliche	-10.9339
▁clumsy	-10.9339
▁compliment	-10.9339
▁curiosity	-10.9339
▁derivative	-10.9339
▁encourage	-10.9339
▁equivalent	-10.9339
▁evoke	-10.9339
▁guarantee	-10.9339
▁juvenile	-10.9339
▁kitchen	-10.9339
▁pseudo	-10.9339
▁psychiatrist	-10.9339
▁psychopath	-10.9339
▁redemption	-10.9339
▁repetitive	-10.9339
▁resource	-10.9339
▁revelation	-10.9339
▁significant	-10.9339
▁sleazy	-10.9339
▁territory	-10.9339
▁unbelievably	-10.9339
▁Enemy	-10.9339
▁Lenny	-10.9339
▁constructed	-10.9339
▁enemy	-10.9339
▁examine	-10.9339
▁Canada	-10.9339
▁buried	-10.9339
▁church	-10.9339
▁library	-10.9339
▁pitiful	-10.9339
▁tiger	-10.9339
▁variety	-10.9339
▁official	-10.9339
▁shotgun	-10.9339
▁website	-10.9339
▁choreography	-10.9339
▁virus	-10.9339
▁Tiger	-10.9339
▁advise	-10.9339
▁improvised	-10.9339
▁Pyun	-10.9339
▁audio	-10.9339
▁timing	-10.9339
▁ladies	-10.9339
▁irony	-10.9339
▁newcomer	-10.9339
▁Shann	-10.9339
▁exposure	-10.9339
▁branch	-10.9339
absorb	-10.9339
▁contribution	-10.9339
▁REAL	-10.9339
▁address	-10.9339
▁ashamed	-10.934
▁Blue	-10.934
▁hunk	-10.934
▁section	-10.934
▁dubious	-10.934
▁weave	-10.934
Title	-10.934
▁pursuit	-10.934
visible	-10.934
▁exposition	-10.934
▁Blake	-10.934
▁internet	-10.934
▁liking	-10.934
▁preview	-10.934
▁dropping	-10.9341
BUT	-10.9341
▁existence	-10.9341
▁Romance	-10.9341
▁fix	-10.9341
▁Blair	-10.9341
▁Marcus	-10.9341
▁happiness	-10.9341
▁Niro	-10.9341
▁truck	-10.9342
▁Evie	-10.9342
▁winner	-10.9342
▁mature	-10.9342
▁alcoholic	-10.9342
▁10/10	-10.9342
▁interaction	-10.9342
▁butcher	-10.9343
▁Freddy	-10.9343
▁trial	-10.9343
▁communicat	-10.9343
▁flawless	-10.9343
▁intimate	-10.9343
▁tank	-10.9344
▁tourist	-10.9344
▁linger	-10.9344
▁Light	-10.9345
▁trio	-10.9345
▁Turk	-10.9346
▁DON	-10.9346
▁Ruth	-10.9346
▁Khan	-10.9346
▁spooky	-10.9347
▁Snow	-10.9349
▁nearby	-10.9349
▁Jackson	-10.9349
▁homo	-10.935
▁Jacque	-10.935
▁fitting	-10.9351
▁introduction	-10.9351
▁summer	-10.9352
▁Willis	-10.9352
▁gear	-10.9352
▁Fair	-10.9352
alph	-10.9352
▁stripper	-10.9352
▁sheriff	-10.9353
▁Clint	-10.9353
▁White	-10.9353
▁overacting	-10.9353
▁grab	-10.9355
▁Beth	-10.9357
▁vast	-10.9357
▁Seth	-10.9358
▁Absolute	-10.9358
▁Besides	-10.9358
▁Whatever	-10.9359
▁Real	-10.9359
▁fifty	-10.9361
walks	-10.9362
▁True	-10.9365
▁mildly	-10.9366
▁suggests	-10.9366
▁Kate	-10.9367
▁Break	-10.9367
▁heroic	-10.9369
▁char	-10.937
▁tall	-10.937
ctic	-10.9372
▁tender	-10.9372
▁Terr	-10.9375
▁Award	-10.9377
▁fli	-10.9384
▁lucky	-10.9386
▁Poor	-10.9388
▁deeper	-10.9391
pid	-10.9392
▁useless	-10.9393
aten	-10.9396
▁Lane	-10.9396
▁baddie	-10.9396
▁senseless	-10.9401
▁Judy	-10.9402
lbe	-10.9408
▁skit	-10.941
▁delivery	-10.941
▁aware	-10.9417
▁drinking	-10.9419
▁possessed	-10.9419
▁pleasantly	-10.9424
▁ON	-10.9429
▁Michel	-10.9441
▁hood	-10.9441
▁Home	-10.9442
▁complaint	-10.9453
▁Dec	-10.9455
▁Lost	-10.946
▁gig	-10.946
▁resemble	-10.946
igan	-10.9462
▁stranger	-10.9466
▁designed	-10.9467
▁closer	-10.9467
▁painting	-10.9478
Dutch	-10.9481
▁settings	-10.9485
▁news	-10.9504
oid	-10.9513
▁Joey	-10.9517
▁referr	-10.9526
▁Cla	-10.953
▁Scar	-10.9537
▁lesser	-10.9537
▁coast	-10.954
rmed	-10.9547
▁hey	-10.9556
▁facts	-10.9566
▁sincere	-10.9569
▁Rub	-10.9581
▁props	-10.9612
▁sisters	-10.963
Blade	-10.9633
ome	-10.9638
▁Jed	-10.9639
ENT	-10.9656
▁escapes	-10.9664
▁Bud	-10.9669
▁zombies	-10.9674
main	-10.9684
▁Ce	-10.9706
▁prepar	-10.971
▁harder	-10.9714
▁fulfill	-10.9715
▁dramas	-10.9723
▁tw	-10.9725
▁studi	-10.9727
▁phon	-10.9729
▁site	-10.9743
▁log	-10.975
▁arrives	-10.9763
▁Mad	-10.9772
ola	-10.9779
▁ob	-10.9788
▁tea	-10.9791
▁Liv	-10.9806
▁bull	-10.981
▁asking	-10.9811
show	-10.9819
vin	-10.9825
▁legs	-10.984
▁chi	-10.9852
▁lam	-10.9861
▁prop	-10.9866
dos	-10.9888
▁Corn	-10.9892
care	-10.9904
ique	-10.9913
ev	-10.9918
satire	-10.994
▁Ala	-10.9941
▁ent	-10.9942
unny	-10.9948
▁Lang	-10.9952
vie	-10.9971
▁Wal	-10.9972
▁Mill	-10.9974
▁vampires	-10.9974
cap	-10.9978
▁Movies	-10.9987
ulk	-10.9991
ught	-10.9996
▁advance	-11.0006
3)	-11.0012
▁demo	-11.0014
hill	-11.0015
pel	-11.0015
▁Pare	-11.0017
▁Ward	-11.0024
▁shadow	-11.004
▁Know	-11.0041
▁exists	-11.0043
▁stereotype	-11.0054
▁Jos	-11.0056
Fro	-11.0065
▁Walt	-11.0079
▁incident	-11.008
▁spoiler	-11.0086
▁Par	-11.0095
acted	-11.0106
▁ironic	-11.0127
looking	-11.0144
fro	-11.0144
▁ski	-11.0148
▁Has	-11.0163
▁Gre	-11.017
▁$1	-11.0177
special	-11.0223
▁Gen	-11.0224
▁193	-11.0228
titude	-11.0232
▁disappoint	-11.0234
bber	-11.0237
umble	-11.025
▁sna	-11.0255
Claude	-11.0258
while	-11.0258
Thank	-11.0259
Friday	-11.0261
normal	-11.0262
Dead	-11.0263
David	-11.0263
Just	-11.0263
burn	-11.0264
because	-11.0264
when	-11.0264
human	-11.0266
PP	-11.0269
Even	-11.0271
cool	-11.0273
▁disgust	-11.0279
OK	-11.0285
▁environment	-11.0285
type	-11.0286
▁unfortunate	-11.0297
ography	-11.0299
▁access	-11.0304
7)	-11.0306
▁crow	-11.0312
Here	-11.0313
▁mob	-11.0315
▁delight	-11.032
▁trail	-11.0321
Com	-11.0321
▁East	-11.0325
▁India	-11.0327
tract	-11.0328
▁dimension	-11.033
▁compose	-11.0331
apped	-11.0332
▁honor	-11.0334
▁confront	-11.0334
▁possibilit	-11.0336
▁Cassavetes	-11.0339
▁Crawford	-11.0339
▁Dragon	-11.0339
▁Fleming	-11.0339
▁Graham	-11.0339
▁Imagine	-11.0339
▁Kurosawa	-11.0339
▁Lolita	-11.0339
▁MOVIE	-11.0339
▁Mildred	-11.0339
▁Picture	-11.0339
▁Steiger	-11.0339
▁Tarzan	-11.0339
▁Wagner	-11.0339
▁behaviour	-11.0339
▁blockbuster	-11.0339
▁enemies	-11.0339
▁enforce	-11.0339
▁exercise	-11.0339
▁holiday	-11.0339
▁importance	-11.0339
▁incoherent	-11.0339
▁infamous	-11.0339
▁landscape	-11.0339
▁nephew	-11.0339
▁newspaper	-11.0339
▁pregnant	-11.0339
▁proceeds	-11.0339
▁reputation	-11.0339
▁riveting	-11.0339
▁stellar	-11.0339
▁suspicious	-11.0339
▁trilogy	-11.0339
▁violin	-11.0339
▁virgin	-11.0339
▁worship	-11.0339
▁Crockett	-11.0339
▁Franco	-11.0339
▁Nanny	-11.0339
▁Scotland	-11.0339
▁Spock	-11.0339
▁Travolta	-11.0339
▁chuckle	-11.0339
▁confident	-11.0339
▁courage	-11.0339
▁illegal	-11.0339
▁method	-11.0339
▁triumph	-11.0339
Clearly	-11.0339
▁Awful	-11.0339
▁Britain	-11.0339
▁Joao	-11.0339
▁accus	-11.0339
▁buddy	-11.0339
▁scandal	-11.0339
▁stiff	-11.0339
▁transfer	-11.0339
*1/2	-11.0339
▁Pryor	-11.0339
▁Stooges	-11.0339
▁Brooks	-11.0339
▁funnier	-11.0339
▁hippie	-11.0339
▁MST	-11.0339
▁Mimi	-11.0339
▁Zoe	-11.0339
▁Trek	-11.0339
▁misery	-11.0339
▁offended	-11.0339
▁daring	-11.0339
▁Gregory	-11.0339
▁float	-11.0339
▁neat	-11.0339
▁lyric	-11.0339
▁Stockwell	-11.0339
Number	-11.0339
▁demonstrate	-11.0339
▁politician	-11.0339
▁text	-11.0339
▁Find	-11.034
▁rival	-11.034
▁gunfight	-11.034
▁Kirk	-11.034
▁valet	-11.034
▁1960	-11.034
▁thankfully	-11.034
▁anime	-11.034
▁Hayes	-11.034
enchant	-11.034
▁Garfield	-11.034
▁Martha	-11.034
▁fond	-11.034
▁symbolism	-11.034
▁Diana	-11.0341
▁Romero	-11.0341
▁psychotic	-11.0341
stood	-11.0341
▁marvelous	-11.0341
▁bridge	-11.0341
▁option	-11.0341
changing	-11.0341
▁alter	-11.0341
▁4/10	-11.0341
▁Theater	-11.0341
▁competent	-11.0341
▁Sister	-11.0341
▁understood	-11.0341
▁improvement	-11.0342
▁relie	-11.0342
▁Bridge	-11.0342
▁Curtis	-11.0342
▁consistent	-11.0342
▁stalk	-11.0342
▁Wongo	-11.0342
▁gather	-11.0343
▁Chaney	-11.0343
▁secretary	-11.0343
▁chess	-11.0343
▁Sound	-11.0343
▁vein	-11.0343
▁grasp	-11.0343
▁Bros	-11.0344
▁Robinson	-11.0344
▁accord	-11.0344
▁Hope	-11.0344
▁sentimental	-11.0344
▁dramatically	-11.0344
▁Grand	-11.0345
▁imagery	-11.0346
▁gla	-11.0346
▁inexplicably	-11.0346
▁everywhere	-11.0346
▁pour	-11.0346
▁narrator	-11.0347
▁drove	-11.0347
▁Father	-11.0347
▁Ols	-11.0348
▁Fast	-11.0348
▁recover	-11.0348
▁RING	-11.0349
▁nomination	-11.035
▁defend	-11.035
▁immensely	-11.035
▁Actually	-11.0352
▁Scream	-11.0352
▁Zombie	-11.0352
▁Norris	-11.0352
▁lifestyle	-11.0353
▁meaningless	-11.0353
ION	-11.0353
Neal	-11.0354
▁sold	-11.0355
▁deny	-11.0355
▁exposed	-11.0356
▁slap	-11.0356
▁Lake	-11.0356
▁Miller	-11.0356
▁Make	-11.0357
▁Beast	-11.0357
▁guide	-11.0357
▁lip	-11.0358
augh	-11.0358
▁mile	-11.0358
▁sophisticated	-11.036
▁Could	-11.036
▁TCM	-11.036
▁Truly	-11.036
▁shine	-11.036
▁Actor	-11.0361
▁poke	-11.0363
▁tense	-11.0363
run	-11.0364
▁Moon	-11.0364
▁About	-11.0368
▁Ghost	-11.0368
▁Something	-11.0369
▁cheek	-11.0369
▁Killer	-11.0371
▁Carla	-11.0374
▁lend	-11.0375
▁fatal	-11.0376
▁Character	-11.0377
▁settle	-11.0377
▁Lady	-11.0377
UN	-11.0379
▁Tor	-11.0382
too	-11.0383
▁Definitely	-11.0385
▁Satan	-11.0385
▁explored	-11.0389
▁grind	-11.0393
▁spoiled	-11.0395
▁required	-11.0396
▁Forest	-11.0396
▁Finally	-11.0397
▁Justin	-11.0401
▁bound	-11.0403
▁mates	-11.0403
▁weight	-11.0404
▁busy	-11.0406
▁upper	-11.0411
▁teaching	-11.0413
▁camps	-11.0413
▁celebrat	-11.0418
▁reel	-11.0418
▁height	-11.0419
▁politics	-11.042
▁attorney	-11.0421
▁pretending	-11.0421
▁masked	-11.0427
▁entertained	-11.0429
bble	-11.0431
7/10	-11.0433
▁campy	-11.0437
trapped	-11.0438
Comedy	-11.0439
▁mach	-11.044
▁harm	-11.0441
▁dimensional	-11.0444
▁appreciated	-11.0445
▁Soon	-11.0445
▁Granted	-11.0461
▁offered	-11.0463
▁rage	-11.0466
▁Juliet	-11.0466
▁Cal	-11.0476
▁layer	-11.0482
▁ensues	-11.0483
▁Phillips	-11.0484
more	-11.0485
▁paced	-11.0486
▁raped	-11.0492
hand	-11.0496
▁Aun	-11.0509
▁Dad	-11.051
▁explains	-11.0511
▁darker	-11.0512
▁bullets	-11.0516
▁robbers	-11.0516
▁Dumb	-11.0518
▁insulting	-11.0519
existent	-11.0527
▁Call	-11.0532
vid	-11.0532
ition	-11.0542
▁notch	-11.0544
▁Years	-11.0549
▁bust	-11.056
▁discovered	-11.0566
?!?	-11.057
ological	-11.0571
ology	-11.0576
▁scripted	-11.0577
▁sleeping	-11.058
▁Thanks	-11.0581
▁hum	-11.0581
▁pig	-11.0587
▁Victoria	-11.0598
▁Add	-11.0604
▁succeeds	-11.0615
▁promot	-11.0618
▁fest	-11.0631
▁prov	-11.0649
jo	-11.0657
4)	-11.0658
▁Dust	-11.0663
▁penn	-11.0664
▁buying	-11.0667
▁defin	-11.0669
▁Murders	-11.0679
").	-11.0688
active	-11.0704
▁goal	-11.0706
eyed	-11.0718
▁Arg	-11.072
ternal	-11.073
bag	-11.0735
▁bitch	-11.0736
▁convinces	-11.074
▁king	-11.0748
▁jo	-11.0753
▁doll	-11.0789
▁sto	-11.08
▁---	-11.0829
▁investigat	-11.0836
▁heal	-11.0837
▁friendly	-11.0845
▁Sid	-11.0846
extraordinary	-11.0855
▁Ju	-11.0861
▁passe	-11.0862
▁sole	-11.0885
▁bog	-11.0889
▁conditions	-11.0912
80	-11.0923
▁provid	-11.0935
▁Times	-11.0935
anger	-11.0946
▁spare	-11.0957
▁guessing	-11.0968
▁boil	-11.097
▁believ	-11.1007
▁prepare	-11.1013
pressed	-11.1017
▁Nor	-11.1018
place	-11.1027
idden	-11.1065
▁Sin	-11.1077
▁appearances	-11.1081
AP	-11.1097
▁succeed	-11.1105
zar	-11.1108
irty	-11.1147
ix	-11.1154
▁BE	-11.1154
▁25	-11.1156
▁unfold	-11.1156
▁Kim	-11.1181
aving	-11.1186
aj	-11.119
note	-11.1191
utton	-11.1194
▁angle	-11.1196
▁quot	-11.1209
▁Gri	-11.1217
▁helping	-11.1224
graphic	-11.124
kel	-11.1253
cup	-11.1271
etti	-11.1307
squ	-11.1309
ppet	-11.1311
▁Eli	-11.1315
▁Mai	-11.1344
▁Val	-11.1359
▁rever	-11.1359
ground	-11.1365
original	-11.1369
Death	-11.1373
60	-11.1373
Anyway	-11.1373
High	-11.1374
familiar	-11.1374
Watch	-11.1374
Jason	-11.1374
girl	-11.1375
script	-11.1375
free	-11.1375
comedy	-11.1377
▁Hey	-11.1378
Queen	-11.1379
master	-11.1384
▁cook	-11.1385
▁cent	-11.1386
stick	-11.1388
produce	-11.1391
▁threaten	-11.1391
▁pr	-11.1394
beat	-11.1396
▁Need	-11.1397
▁depict	-11.1402
pac	-11.1424
▁icon	-11.1428
▁creep	-11.1428
ano	-11.1428
Whil	-11.1428
▁Africa	-11.1429
semble	-11.1429
▁fift	-11.1435
▁origin	-11.1441
▁convention	-11.1442
▁obsess	-11.1444
▁collect	-11.1444
.......	-11.1446
▁interpret	-11.1446
▁announce	-11.1447
mitted	-11.1448
▁symbol	-11.1448
▁fabric	-11.1449
▁Wei	-11.1449
▁Dorothy	-11.145
▁Jekyll	-11.145
▁MORE	-11.145
▁Naschy	-11.145
▁Oliver	-11.145
▁Pickford	-11.145
▁Shahrukh	-11.145
▁album	-11.145
▁resolve	-11.145
▁unwatchable	-11.145
▁Adventure	-11.145
▁Bishop	-11.145
▁Carradine	-11.145
▁Chicago	-11.145
▁Elizondo	-11.145
▁FOX	-11.145
▁Keaton	-11.145
▁Kinski	-11.145
▁MGM	-11.145
▁Mexico	-11.145
▁Miami	-11.145
▁Ninja	-11.145
▁Private	-11.145
▁Project	-11.145
▁Sullivan	-11.145
▁Sylvester	-11.145
▁Vampire	-11.145
▁airplane	-11.145
▁antagonist	-11.145
▁arrival	-11.145
▁calendar	-11.145
▁categorize	-11.145
▁coherent	-11.145
▁creativity	-11.145
▁credible	-11.145
▁despair	-11.145
▁easier	-11.145
▁evolution	-11.145
▁fascination	-11.145
▁frustrated	-11.145
▁futuristic	-11.145
▁generous	-11.145
▁gigantic	-11.145
▁guitar	-11.145
▁hockey	-11.145
▁inventive	-11.145
▁magnificent	-11.145
▁mirror	-11.145
▁ourselves	-11.145
▁precise	-11.145
▁prejudice	-11.145
▁proceedings	-11.145
▁provocative	-11.145
▁racist	-11.145
▁refuge	-11.145
▁request	-11.145
▁respond	-11.145
▁retired	-11.145
▁shoddy	-11.145
▁trauma	-11.145
▁universal	-11.145
▁Akbar	-11.145
▁Creek	-11.145
▁Fonda	-11.145
▁Midler	-11.145
▁Nelson	-11.145
▁Rupert	-11.145
▁Video	-11.145
▁captivat	-11.145
▁engross	-11.145
▁hackneyed	-11.145
▁household	-11.145
▁nurse	-11.145
▁satisfact	-11.145
▁slice	-11.145
▁smug	-11.145
Clerks	-11.145
▁Keller	-11.145
▁countries	-11.145
▁cruise	-11.145
▁undoubted	-11.145
Ultimate	-11.145
▁Damme	-11.145
▁native	-11.145
▁stead	-11.145
clusive	-11.145
▁Shore	-11.145
▁burst	-11.145
▁climb	-11.145
▁leap	-11.145
legitima	-11.145
▁Fanning	-11.145
▁Vlad	-11.145
▁outfits	-11.145
▁food	-11.145
▁fruit	-11.145
▁nevertheless	-11.145
▁blur	-11.145
▁Tomei	-11.145
▁turd	-11.145
▁applie	-11.145
▁Clayton	-11.145
▁conceived	-11.145
▁polar	-11.145
▁advantage	-11.145
▁minimum	-11.145
▁excruciating	-11.145
▁Cross	-11.145
▁riot	-11.145
▁barrel	-11.145
▁hiding	-11.145
▁Eastwood	-11.145
▁damage	-11.145
▁rising	-11.145
▁Point	-11.145
▁confusion	-11.145
▁Jesu	-11.145
▁Tower	-11.145
▁slim	-11.1451
▁prize	-11.1451
▁Hurt	-11.1451
▁vulnerable	-11.1451
▁Sunday	-11.1451
warm	-11.1451
▁Grave	-11.1451
▁afterwards	-11.1451
▁angry	-11.1451
▁devot	-11.1451
▁thread	-11.1451
▁seventies	-11.1451
▁hammy	-11.1451
▁Almost	-11.1451
AVE	-11.1451
▁keen	-11.1451
▁Hopper	-11.1451
▁spread	-11.1451
▁bias	-11.1451
▁birthday	-11.1451
▁Christine	-11.1452
▁superhero	-11.1452
▁Baker	-11.1452
▁Keane	-11.1452
▁Khanna	-11.1452
▁Hawn	-11.1452
ivil	-11.1452
tango	-11.1452
▁breed	-11.1452
▁Ranger	-11.1452
▁slightest	-11.1453
▁Tommy	-11.1453
▁Fortress	-11.1453
▁basement	-11.1453
▁severe	-11.1453
▁jewel	-11.1453
Claudette	-11.1453
▁detract	-11.1453
▁roommate	-11.1454
▁obsession	-11.1454
▁Christie	-11.1454
▁interpretation	-11.1454
▁babe	-11.1455
▁Superman	-11.1455
▁jaw	-11.1455
▁Shakespeare	-11.1455
▁rerun	-11.1455
▁pitch	-11.1456
▁duty	-11.1456
▁yell	-11.1456
Next	-11.1456
▁contestant	-11.1456
▁meaningful	-11.1456
▁corruption	-11.1456
▁formulaic	-11.1457
▁DTV	-11.1457
▁hoot	-11.1457
▁sky	-11.1457
▁health	-11.1457
▁clash	-11.1457
▁coward	-11.1458
▁whine	-11.1458
▁inappropriate	-11.1458
burg	-11.1458
▁Burton	-11.1458
▁Terror	-11.1459
▁Hunter	-11.1459
▁progresses	-11.1459
▁realistically	-11.146
▁Twin	-11.146
▁Zone	-11.146
▁Asia	-11.146
AW	-11.146
▁Rome	-11.146
▁obscure	-11.146
▁pond	-11.1461
▁stake	-11.1461
▁'80	-11.1461
▁chip	-11.1461
▁uncover	-11.1461
▁rebel	-11.1462
▁study	-11.1462
▁Serg	-11.1462
▁Way	-11.1463
▁overcome	-11.1463
▁secondary	-11.1463
▁Enjoy	-11.1464
▁Claire	-11.1464
▁Secret	-11.1465
▁Wild	-11.1468
▁prisoners	-11.1468
▁Keng	-11.1468
▁campus	-11.1469
izard	-11.1469
▁Never	-11.1469
▁vain	-11.147
▁adore	-11.147
▁enjoyment	-11.1471
▁hall	-11.1471
▁wedding	-11.1471
▁Louise	-11.1471
▁Rex	-11.1472
▁fat	-11.1472
▁Matrix	-11.1474
▁phrase	-11.1474
▁polished	-11.1475
▁Saw	-11.1475
▁Annie	-11.1475
worn	-11.1475
vious	-11.1475
▁intrigued	-11.1475
hew	-11.1476
▁Monster	-11.1476
▁Bolo	-11.1478
▁effortless	-11.1478
stone	-11.1479
▁Give	-11.1479
▁creation	-11.1481
▁grate	-11.1482
▁Julian	-11.1482
▁Special	-11.1483
▁Evil	-11.1483
▁overwhelming	-11.1483
▁partial	-11.1484
▁awaken	-11.1484
▁Penny	-11.1485
▁repeated	-11.1486
▁advanced	-11.1488
▁progress	-11.1488
▁rushed	-11.1489
boat	-11.149
▁removed	-11.1491
fast	-11.1492
▁Unity	-11.1493
▁repeatedly	-11.1494
▁egg	-11.1494
▁Song	-11.1494
▁Lord	-11.1496
▁Var	-11.1496
▁bone	-11.1498
▁succeeded	-11.1498
▁distracting	-11.1498
▁Kath	-11.1499
▁isolate	-11.15
▁witch	-11.1501
▁bitter	-11.1502
▁9/10	-11.1503
▁Ginger	-11.1503
▁Wind	-11.1505
esque	-11.1509
▁Pam	-11.1509
▁doom	-11.1509
▁maid	-11.1511
▁affected	-11.1512
▁threatening	-11.1513
▁Jay	-11.1514
▁III	-11.1515
eye	-11.1515
everal	-11.1515
ears	-11.152
▁slip	-11.1522
ooney	-11.1524
▁CB	-11.1531
▁Tell	-11.1532
spoon	-11.1532
Que	-11.1533
▁helm	-11.1533
▁drivel	-11.1538
▁inspiring	-11.154
▁nerves	-11.154
▁sober	-11.1541
▁Marie	-11.1548
▁Cast	-11.1549
▁Cold	-11.1551
▁ONE	-11.1556
▁repeating	-11.1557
▁Mori	-11.156
▁bath	-11.1561
▁introduce	-11.1565
▁warming	-11.1576
▁liners	-11.1576
▁Sun	-11.1576
▁errors	-11.1576
Van	-11.1591
▁:)	-11.1595
packed	-11.1596
▁normally	-11.1597
▁listening	-11.1601
hound	-11.1617
▁unlikely	-11.1623
faced	-11.1627
▁representing	-11.1631
▁programme	-11.1639
tress	-11.1639
▁kicking	-11.1647
▁Waters	-11.1649
hear	-11.1659
▁shy	-11.1662
▁ple	-11.167
▁CO	-11.1672
▁sports	-11.1686
Pa	-11.1693
▁react	-11.1701
mper	-11.1711
▁playful	-11.1715
▁descriptions	-11.1722
▁prostitutes	-11.1722
▁listed	-11.1733
OSE	-11.174
▁TH	-11.1746
▁mega	-11.1755
eign	-11.1757
vision	-11.1761
othy	-11.1772
last	-11.1773
▁pale	-11.1788
bow	-11.1789
▁Ren	-11.1792
▁shadows	-11.1796
▁importantly	-11.1797
▁advances	-11.1797
Har	-11.1804
▁stripp	-11.1815
His	-11.1822
▁lie	-11.1863
▁timeless	-11.187
0%	-11.1872
▁Christ	-11.1879
rich	-11.1882
▁coat	-11.1884
▁mal	-11.1886
yard	-11.1887
▁amazingly	-11.1887
▁viewed	-11.1895
▁fighters	-11.1906
Hop	-11.1908
▁fad	-11.1922
Demon	-11.1937
laine	-11.1972
huh	-11.1976
equi	-11.1983
dication	-11.1983
Str	-11.1991
▁17	-11.2036
▁hoped	-11.2056
▁sac	-11.2075
TER	-11.2105
pil	-11.2118
leg	-11.2132
▁Monk	-11.2145
▁shoes	-11.2155
▁summ	-11.2157
▁Mil	-11.2185
atu	-11.2195
75	-11.2251
▁HU	-11.2257
▁dro	-11.226
▁fed	-11.2284
▁Amazon	-11.2299
rna	-11.2327
▁sav	-11.2332
▁Marc	-11.2333
▁Hale	-11.2361
▁involve	-11.2376
mostly	-11.238
▁lone	-11.2388
▁description	-11.24
▁prostitute	-11.24
ember	-11.2406
▁Hill	-11.2418
otic	-11.2419
oby	-11.2428
Hook	-11.2435
ogue	-11.2436
▁realiz	-11.245
▁Had	-11.2462
ogie	-11.2467
probably	-11.2471
▁gar	-11.2497
1000	-11.2498
▁flee	-11.2499
▁Thank	-11.2501
▁Rosa	-11.2513
lander	-11.2517
▁Leon	-11.2521
yton	-11.2558
▁stru	-11.2571
▁haunt	-11.2591
after	-11.26
rified	-11.2608
ELL	-11.2613
▁Anne	-11.2613
SPOILER	-11.2614
▁Q	-11.262
Desp	-11.2621
Candyman	-11.2622
Frank	-11.2623
Did	-11.2624
includ	-11.2624
thriller	-11.2624
George	-11.2624
Michael	-11.2624
bound	-11.2625
mates	-11.2625
found	-11.2626
parent	-11.263
based	-11.2632
▁mode	-11.2634
hink	-11.2635
Who	-11.2636
Ray	-11.2639
▁satisfy	-11.264
▁corn	-11.2644
▁CR	-11.2645
kill	-11.2652
▁accomplish	-11.2653
music	-11.2653
▁arrest	-11.2655
▁gag	-11.2657
▁awake	-11.2663
▁Bl	-11.2666
▁purchase	-11.2667
stand	-11.267
kind	-11.2676
▁Louis	-11.2683
▁Turn	-11.2685
awn	-11.2688
▁occasion	-11.269
▁sketch	-11.2691
▁Whe	-11.2692
▁contest	-11.2694
▁alcohol	-11.2696
▁comfort	-11.2697
▁gentle	-11.2697
▁happi	-11.2697
▁electric	-11.2697
▁thru	-11.2699
▁document	-11.2699
traight	-11.27
▁Gibson	-11.27
▁Graffiti	-11.27
▁Holliday	-11.27
▁LISA	-11.27
▁Lugosi	-11.27
▁Remember	-11.27
▁STUPID	-11.27
▁Scientology	-11.27
▁Should	-11.27
▁Swinton	-11.27
▁Thurman	-11.27
▁cinematographer	-11.27
▁conspir	-11.27
▁embrace	-11.27
▁horrifying	-11.27
▁implausible	-11.27
▁institution	-11.27
▁mechanic	-11.27
▁miscast	-11.27
▁nostalgic	-11.27
▁predecessor	-11.27
▁scatter	-11.27
▁stomach	-11.27
▁thief	-11.27
scientific	-11.27
▁1992	-11.27
▁2001	-11.27
▁Bollywood	-11.27
▁Campbell	-11.27
▁FILM	-11.27
▁Georgia	-11.27
▁Hamilton	-11.27
▁LOVE	-11.27
▁Madonna	-11.27
▁Monogram	-11.27
▁Neeson	-11.27
▁Network	-11.27
▁Nevertheless	-11.27
▁OMEN	-11.27
▁Obviously	-11.27
▁Rathbone	-11.27
▁Rendezvous	-11.27
▁Titanic	-11.27
▁Traveler	-11.27
▁backdrop	-11.27
▁choreographed	-11.27
▁coincidence	-11.27
▁corporation	-11.27
▁credibility	-11.27
▁enormous	-11.27
▁evident	-11.27
▁exploration	-11.27
▁gesture	-11.27
▁grief	-11.27
▁horrendous	-11.27
▁irritate	-11.27
▁jealous	-11.27
▁lackluster	-11.27
▁misfortune	-11.27
▁principle	-11.27
▁relentless	-11.27
▁restaurant	-11.27
▁simplicity	-11.27
▁slaughter	-11.27
▁spectrum	-11.27
▁superficial	-11.27
▁understated	-11.27
▁unpleasant	-11.27
▁Cohen	-11.27
▁Foley	-11.27
▁descend	-11.27
▁engine	-11.27
▁inevitabl	-11.27
▁neighbour	-11.27
▁nervous	-11.27
▁nonetheless	-11.27
▁sufficient	-11.27
▁Channel	-11.27
▁Place	-11.27
▁blatant	-11.27
▁medium	-11.27
▁network	-11.27
▁relax	-11.27
▁Duffy	-11.27
▁TNA	-11.27
▁piano	-11.27
determination	-11.27
▁Buffy	-11.27
▁Naples	-11.27
▁echo	-11.27
▁temper	-11.27
▁Collins	-11.27
▁Derek	-11.27
glorious	-11.27
▁whiny	-11.27
Signs	-11.27
▁gender	-11.27
▁afternoon	-11.27
wrenching	-11.27
▁distant	-11.27
▁Erro	-11.27
▁milk	-11.27
▁Neville	-11.27
▁grainy	-11.27
▁adequate	-11.27
▁Hood	-11.27
▁Town	-11.27
▁beloved	-11.27
▁Murray	-11.27
▁definition	-11.27
▁rational	-11.27
Support	-11.27
▁transition	-11.27
▁Dickens	-11.27
▁instant	-11.27
▁Reeve	-11.27
▁protest	-11.27
▁estate	-11.27
▁abrupt	-11.27
▁calib	-11.27
▁lust	-11.27
▁Walken	-11.27
▁planning	-11.2701
▁Greek	-11.2701
▁Thankfully	-11.2701
▁Wesley	-11.2701
Wrong	-11.2701
▁Grade	-11.2701
Summer	-11.2701
▁glance	-11.2701
▁Colbert	-11.2701
▁kidnap	-11.2701
▁sappy	-11.2701
▁contribute	-11.2701
▁Holden	-11.2701
▁bedroom	-11.2701
▁Jeffrey	-11.2701
▁Jolie	-11.2701
▁Work	-11.2701
▁wander	-11.2701
▁exchange	-11.2701
▁fluff	-11.2701
▁Godfather	-11.2701
▁involvement	-11.2701
▁argument	-11.2702
WAY	-11.2702
▁Lucy	-11.2702
▁Forsyth	-11.2702
▁recognition	-11.2702
▁concentrat	-11.2702
Season	-11.2702
▁excessive	-11.2702
▁Science	-11.2702
▁gunshot	-11.2702
▁uninspired	-11.2702
▁gripping	-11.2702
▁Philip	-11.2702
▁melodramatic	-11.2702
▁monoton	-11.2702
▁angst	-11.2703
▁pride	-11.2703
▁resolution	-11.2703
▁safety	-11.2703
▁continuous	-11.2703
▁crank	-11.2703
▁Bates	-11.2703
▁thrust	-11.2703
▁sword	-11.2703
▁Malone	-11.2703
▁torment	-11.2704
▁teeth	-11.2704
▁chew	-11.2704
▁dash	-11.2704
▁passionate	-11.2704
▁homosexuality	-11.2704
▁unfunny	-11.2704
▁rewind	-11.2704
ONG	-11.2704
▁proof	-11.2705
▁Bush	-11.2705
▁Witch	-11.2705
▁inject	-11.2705
▁Metal	-11.2705
▁invasion	-11.2705
▁deput	-11.2706
▁accompanie	-11.2706
▁philosophical	-11.2706
holic	-11.2706
AKE	-11.2707
ounce	-11.2707
▁Milland	-11.2707
▁trend	-11.2708
▁Officer	-11.2709
▁bride	-11.2709
▁foolish	-11.2709
▁countryside	-11.2709
▁sketches	-11.2709
ooge	-11.2709
▁sail	-11.271
▁Academy	-11.271
▁Fight	-11.2711
▁tag	-11.2711
▁punk	-11.2712
▁mold	-11.2712
▁banne	-11.2713
▁flies	-11.2713
▁cartoonish	-11.2713
▁cake	-11.2714
▁representation	-11.2714
▁hire	-11.2714
▁Aslan	-11.2715
▁chicken	-11.2715
▁tasteless	-11.2715
▁Fright	-11.2715
▁morality	-11.2716
▁Australian	-11.2716
▁Swedish	-11.2716
▁tower	-11.2716
Gues	-11.2717
▁Music	-11.2717
▁Roman	-11.2718
▁Later	-11.2718
▁Leonard	-11.2718
▁Myster	-11.2718
judg	-11.2719
▁nud	-11.2719
big	-11.272
▁unlikeable	-11.272
▁stir	-11.2721
▁delve	-11.2721
▁Bank	-11.2722
▁shameless	-11.2722
▁Easter	-11.2722
▁Emily	-11.2722
▁lean	-11.2722
▁hitting	-11.2725
▁Buck	-11.2725
▁aunt	-11.2725
▁Mick	-11.2727
▁Connor	-11.2727
▁Bela	-11.2728
▁policeman	-11.2732
▁dragged	-11.2733
▁Barry	-11.2733
horn	-11.2733
▁outlook	-11.2734
▁hired	-11.2734
▁duo	-11.2735
▁bold	-11.2736
▁smoke	-11.2738
▁Alien	-11.2738
▁Amit	-11.2739
▁Ricky	-11.2739
▁Case	-11.2742
▁Johnson	-11.2742
▁Holly	-11.2744
▁yo	-11.2744
▁centre	-11.2745
▁Want	-11.2746
tube	-11.2749
▁fallen	-11.2749
▁characteristic	-11.2751
▁dire	-11.2751
▁hopeless	-11.2753
▁swinging	-11.2755
lord	-11.2757
▁Five	-11.2759
▁Bambi	-11.2759
▁thoughtful	-11.276
▁acquire	-11.2762
▁pity	-11.2763
▁rescued	-11.2764
▁drowned	-11.2765
▁Dove	-11.2766
▁understandable	-11.2769
▁observe	-11.2771
riving	-11.2771
▁cooking	-11.2772
dited	-11.2774
▁SPOILER	-11.2775
▁Del	-11.2777
▁improved	-11.2777
Let	-11.2779
▁tackle	-11.2781
▁artsy	-11.2781
▁Plan	-11.2784
▁Sex	-11.2785
nator	-11.2787
▁trashy	-11.2788
▁dominate	-11.2792
▁Try	-11.2794
guise	-11.2797
▁accurately	-11.2803
cia	-11.2803
▁alas	-11.2805
▁established	-11.2808
▁Bla	-11.2811
▁interact	-11.2817
▁illustrate	-11.282
▁Germany	-11.2825
▁thrilled	-11.2834
▁sin	-11.2835
garde	-11.2838
▁spi	-11.284
▁reasonable	-11.2845
▁burned	-11.2847
▁fired	-11.285
▁PR	-11.2851
▁existed	-11.2852
▁Sheen	-11.2853
▁physically	-11.2856
▁compete	-11.2858
▁embodi	-11.286
▁loosely	-11.2862
▁Simpl	-11.2863
▁Mega	-11.2864
▁dub	-11.2872
comparabl	-11.2877
▁drawing	-11.2881
gue	-11.2894
Burn	-11.2905
TLE	-11.2912
Stage	-11.2918
▁Hol	-11.2919
▁suggested	-11.2921
▁poetic	-11.2936
quir	-11.2945
minded	-11.2949
▁prey	-11.295
Polar	-11.2951
▁masterful	-11.2964
▁west	-11.2965
▁forbid	-11.2986
ercentage	-11.299
▁sock	-11.2999
hai	-11.3005
▁fur	-11.3012
▁Air	-11.3021
utter	-11.3031
▁Malco	-11.3035
▁Dari	-11.3051
done	-11.3052
ju	-11.3077
▁rush	-11.3082
▁quarter	-11.3083
▁deform	-11.309
▁preferr	-11.3105
stein	-11.3109
Dr	-11.3133
▁Eat	-11.3135
Na	-11.3143
▁web	-11.3157
▁Sil	-11.3172
▁user	-11.3185
Are	-11.3186
dul	-11.3209
sequ	-11.3213
roth	-11.3217
▁domin	-11.3221
ride	-11.3232
held	-11.3234
▁Dun	-11.3261
van	-11.3261
boiled	-11.3278
mination	-11.3281
disc	-11.33
▁/>***	-11.3319
▁Dutt	-11.3331
onnie	-11.3349
zen	-11.3365
******	-11.3411
range	-11.3431
aught	-11.3433
END	-11.3459
fé	-11.3462
rah	-11.3481
!!!)	-11.3489
Brit	-11.3506
eon	-11.3529
▁mish	-11.3546
▁bump	-11.3592
ubi	-11.3593
educated	-11.3631
layer	-11.3654
▁deba	-11.3655
hu	-11.3655
fetched	-11.3661
spirited	-11.3664
headed	-11.3664
corporate	-11.3671
RV	-11.3671
nstein	-11.3688
itty	-11.3708
▁define	-11.372
Nola	-11.3734
wind	-11.3742
▁Lan	-11.3742
gum	-11.3743
▁RO	-11.3801
▁moron	-11.3803
▁Year	-11.3831
▁weapon	-11.3835
▁month	-11.3837
▁sport	-11.3838
▁suspens	-11.3872
▁Dir	-11.3875
▁introduc	-11.3895
▁performer	-11.391
otta	-11.3921
lty	-11.3928
▁DC	-11.3929
road	-11.393
En	-11.3944
▁*****	-11.3978
▁rais	-11.3989
▁illustr	-11.3992
world	-11.4001
mind	-11.4009
position	-11.4011
west	-11.4019
Free	-11.4027
scent	-11.4034
EVER	-11.405
maid	-11.405
▁grin	-11.405
Yeah	-11.4051
Julie	-11.4051
Angel	-11.4051
Everything	-11.4052
winning	-11.4052
$	-11.4052
William	-11.4052
fashion	-11.4052
Perhaps	-11.4052
Love	-11.4053
either	-11.4053
Maybe	-11.4053
Donald	-11.4053
meaning	-11.4053
mouth	-11.4053
interest	-11.4053
school	-11.4053
half	-11.4053
Night	-11.4054
motion	-11.4054
Harry	-11.4056
since	-11.4061
Every	-11.4062
Avoid	-11.4062
▁distract	-11.4065
spiring	-11.4066
▁Brig	-11.4067
join	-11.4067
▁surround	-11.4067
EE	-11.407
convinced	-11.4072
dress	-11.4072
Out	-11.4074
▁Freddi	-11.4076
arty	-11.4077
load	-11.4083
▁complicat	-11.4083
▁mild	-11.4086
▁deliberate	-11.4086
from	-11.4091
▁slight	-11.4094
▁invite	-11.4095
▁intrigue	-11.4096
See	-11.41
both	-11.4102
▁Emil	-11.4103
▁guilt	-11.4104
▁sympath	-11.4104
▁Whit	-11.4106
▁Korea	-11.4106
▁leather	-11.4107
God	-11.4108
▁narrat	-11.4112
hour	-11.4114
rity	-11.4116
▁Bear	-11.4118
▁prince	-11.412
▁ANY	-11.4121
also	-11.4121
▁Europe	-11.4124
ehind	-11.4125
▁Krist	-11.4126
neath	-11.4126
▁tempt	-11.4126
▁Tale	-11.4127
▁concentrate	-11.4127
annibal	-11.4127
▁orphan	-11.4127
▁stereo	-11.4128
Nichol	-11.4128
mill	-11.4128
wielding	-11.4129
Children	-11.4129
Furthermore	-11.4129
Hrithik	-11.4129
Predator	-11.4129
aragraph	-11.4129
neutral	-11.4129
reservation	-11.4129
í	-11.4129
▁Avengers	-11.4129
▁Batignole	-11.4129
▁Believe	-11.4129
▁Binoche	-11.4129
▁Brilliant	-11.4129
▁Bullock	-11.4129
▁Bunuel	-11.4129
▁Considine	-11.4129
▁Dawson	-11.4129
▁DeMille	-11.4129
▁Dudikoff	-11.4129
▁Florida	-11.4129
▁GREAT	-11.4129
▁Honestly	-11.4129
▁Hughes	-11.4129
▁LIKE	-11.4129
▁Lancaster	-11.4129
▁Lansbury	-11.4129
▁MacMurray	-11.4129
▁Marshall	-11.4129
▁Mathieu	-11.4129
▁McClane	-11.4129
▁Mountain	-11.4129
▁President	-11.4129
▁Raymond	-11.4129
▁Reinhold	-11.4129
▁SOME	-11.4129
▁Scruffy	-11.4129
▁Seinfeld	-11.4129
▁Seriously	-11.4129
▁Stanwyck	-11.4129
▁Studios	-11.4129
▁Stupid	-11.4129
▁Suddenly	-11.4129
▁Sutherland	-11.4129
▁Third	-11.4129
▁Vaughn	-11.4129
▁WATCH	-11.4129
▁Zemeckis	-11.4129
▁adolescen	-11.4129
▁alternative	-11.4129
▁arrogant	-11.4129
▁artificial	-11.4129
▁basketball	-11.4129
▁bewilder	-11.4129
▁buddies	-11.4129
▁campaign	-11.4129
▁caricature	-11.4129
▁celluloid	-11.4129
▁centuries	-11.4129
▁chamber	-11.4129
▁chaos	-11.4129
▁circa	-11.4129
▁circle	-11.4129
▁circus	-11.4129
▁consequence	-11.4129
▁cynical	-11.4129
▁dedicated	-11.4129
▁destruction	-11.4129
▁dinosaur	-11.4129
▁disjointed	-11.4129
▁eccentric	-11.4129
▁empathy	-11.4129
▁empire	-11.4129
▁enthrall	-11.4129
▁entrance	-11.4129
▁equipment	-11.4129
▁escaping	-11.4129
▁exaggerated	-11.4129
▁fiancé	-11.4129
▁flavor	-11.4129
▁frustrating	-11.4129
▁global	-11.4129
▁glory	-11.4129
▁grandmother	-11.4129
▁hilarity	-11.4129
▁idiocy	-11.4129
▁imaginable	-11.4129
▁informative	-11.4129
▁insomnia	-11.4129
▁intimidating	-11.4129
▁irrelevant	-11.4129
▁license	-11.4129
▁massacre	-11.4129
▁mercenar	-11.4129
▁muddled	-11.4129
▁nightclub	-11.4129
▁occup	-11.4129
▁pedestrian	-11.4129
▁poverty	-11.4129
▁producing	-11.4129
▁prominent	-11.4129
▁punishment	-11.4129
▁relevan	-11.4129
▁restrained	-11.4129
▁retarded	-11.4129
▁salvage	-11.4129
▁secure	-11.4129
▁sfx	-11.4129
▁slide	-11.4129
▁stylistic	-11.4129
▁synopsis	-11.4129
▁travesty	-11.4129
▁tremendous	-11.4129
▁unhappy	-11.4129
▁unimaginative	-11.4129
▁unlikable	-11.4129
▁utilize	-11.4129
▁volume	-11.4129
▁wardrobe	-11.4129
Beautiful	-11.4129
▁1978	-11.4129
▁Belgi	-11.4129
▁Benjamin	-11.4129
▁Classic	-11.4129
▁Except	-11.4129
▁Hoffman	-11.4129
▁Hopkins	-11.4129
▁Massey	-11.4129
▁Tokyo	-11.4129
▁Truth	-11.4129
▁VCR	-11.4129
▁Violen	-11.4129
▁assault	-11.4129
▁cemetery	-11.4129
▁clerk	-11.4129
▁condemn	-11.4129
▁distinguish	-11.4129
▁empathi	-11.4129
▁explode	-11.4129
▁hypnoti	-11.4129
▁instrument	-11.4129
▁mafia	-11.4129
▁mystical	-11.4129
▁retrospect	-11.4129
▁sensational	-11.4129
▁smash	-11.4129
▁succumb	-11.4129
▁unravel	-11.4129
▁videotape	-11.4129
Bernard	-11.4129
September	-11.4129
apocalypt	-11.4129
▁Aqua	-11.4129
▁Craig	-11.4129
▁Gardner	-11.4129
▁Jodha	-11.4129
▁Mummy	-11.4129
▁Pierce	-11.4129
▁Roxy	-11.4129
▁clone	-11.4129
▁combat	-11.4129
▁confirm	-11.4129
▁contradiction	-11.4129
▁devastat	-11.4129
▁filth	-11.4129
▁flair	-11.4129
▁fortunate	-11.4129
▁invention	-11.4129
▁mischie	-11.4129
▁padding	-11.4129
▁taxi	-11.4129
▁zoom	-11.4129
Beyond	-11.4129
▁Jamie	-11.4129
▁abomination	-11.4129
▁clip	-11.4129
▁expand	-11.4129
▁insanity	-11.4129
▁Caleb	-11.4129
▁Freeman	-11.4129
▁Scene	-11.4129
▁decline	-11.4129
Bottom	-11.4129
RATING	-11.4129
▁Apache	-11.4129
▁alligator	-11.4129
▁atrocious	-11.4129
▁Entering	-11.4129
▁Jesse	-11.4129
▁Viking	-11.4129
▁crawl	-11.4129
▁exhaust	-11.4129
▁pause	-11.4129
▁lousy	-11.4129
▁rendered	-11.4129
▁spiral	-11.4129
▁strain	-11.4129
▁warrant	-11.4129
▁bonus	-11.4129
▁plastic	-11.4129
▁portion	-11.4129
Frankenstein	-11.4129
▁Chabrol	-11.4129
▁compassion	-11.4129
▁rendering	-11.4129
Usually	-11.4129
▁Cathy	-11.4129
▁rapid	-11.4129
▁route	-11.4129
▁Native	-11.4129
▁ensure	-11.4129
▁split	-11.4129
▁Heather	-11.4129
▁Batman	-11.4129
▁assuming	-11.4129
hungry	-11.4129
▁Everett	-11.4129
▁Barrymore	-11.4129
▁Berry	-11.4129
▁Mantee	-11.4129
▁faint	-11.4129
▁inherit	-11.4129
Natural	-11.4129
▁hottest	-11.4129
▁Nicol	-11.4129
▁bang	-11.4129
▁Wave	-11.4129
Thunder	-11.4129
▁Soviet	-11.4129
▁retain	-11.4129
▁Arab	-11.4129
▁rubber	-11.4129
▁shouting	-11.4129
▁bird	-11.4129
underwater	-11.4129
▁misleading	-11.4129
▁Shot	-11.4129
▁Kurt	-11.4129
▁substitute	-11.4129
▁Malkovich	-11.4129
▁installment	-11.4129
▁resort	-11.4129
▁generate	-11.4129
▁Vince	-11.4129
▁feminist	-11.4129
Austin	-11.413
▁radical	-11.413
▁prospect	-11.413
▁dreary	-11.413
▁narrow	-11.413
▁colon	-11.413
▁specifically	-11.413
▁Dern	-11.413
▁MAN	-11.413
inducing	-11.413
▁Talk	-11.413
utterfly	-11.413
▁unexplained	-11.413
▁unforgettable	-11.413
▁profile	-11.413
▁snake	-11.413
▁sidekick	-11.413
LOT	-11.413
▁Hicks	-11.413
▁midget	-11.413
▁Marple	-11.413
▁mobster	-11.413
▁distress	-11.413
▁mouse	-11.413
▁crook	-11.4131
▁nerd	-11.4131
▁eruption	-11.4131
▁Doctor	-11.4131
▁Jaane	-11.4131
▁8/10	-11.4131
▁calm	-11.4131
Freak	-11.4131
▁Potter	-11.4131
▁Dodge	-11.4131
▁stress	-11.4132
haye	-11.4132
▁kidding	-11.4132
▁glass	-11.4132
▁spiritual	-11.4132
▁daddy	-11.4132
▁Somehow	-11.4132
▁trade	-11.4132
OOD	-11.4132
▁Jenn	-11.4132
▁insightful	-11.4132
▁fanatic	-11.4132
▁ignorance	-11.4132
▁cruelty	-11.4133
▁investigation	-11.4134
▁modest	-11.4134
▁similarities	-11.4134
▁Knight	-11.4134
▁confession	-11.4135
▁WWE	-11.4135
▁Woman	-11.4135
▁confrontation	-11.4135
▁playboy	-11.4135
CAN	-11.4135
▁tied	-11.4135
▁clueless	-11.4136
appiness	-11.4136
▁Latin	-11.4136
▁Chick	-11.4136
▁River	-11.4136
▁static	-11.4136
▁starlet	-11.4136
▁unoriginal	-11.4136
▁alarm	-11.4137
opical	-11.4137
▁Bald	-11.4137
▁Kung	-11.4137
▁edition	-11.4137
▁ego	-11.4138
▁unbearable	-11.4138
▁junkie	-11.4138
▁Alba	-11.4138
▁glasses	-11.4138
▁Sandman	-11.4138
▁Marcel	-11.4138
EST	-11.4138
raft	-11.4138
▁3000	-11.4138
▁grocery	-11.4139
▁scant	-11.4139
Zero	-11.4139
▁flight	-11.414
▁Road	-11.4141
▁plate	-11.4141
▁fuel	-11.4141
▁Karl	-11.4141
▁peril	-11.4142
▁chat	-11.4142
▁experimental	-11.4143
ifty	-11.4143
▁TEN	-11.4143
▁madness	-11.4143
▁Holland	-11.4144
▁Four	-11.4145
▁heap	-11.4145
▁bash	-11.4146
▁45	-11.4146
▁pill	-11.4146
▁Bale	-11.4146
Jacob	-11.4146
▁intent	-11.4147
▁journalist	-11.4147
▁Beowulf	-11.4148
▁Consider	-11.4148
▁attribute	-11.4148
▁NY	-11.4149
▁expensive	-11.4149
▁boom	-11.415
▁reward	-11.415
▁Italy	-11.415
▁Hind	-11.415
▁Mason	-11.4152
▁Total	-11.4153
▁24	-11.4153
▁ku	-11.4154
▁disturbed	-11.4154
▁expe	-11.4155
▁celebrit	-11.4157
▁Nile	-11.4157
Plot	-11.4157
▁Rating	-11.4158
▁wave	-11.4158
▁MU	-11.4158
inct	-11.4158
▁35	-11.4159
▁Given	-11.4159
▁uneven	-11.4159
▁noticeable	-11.4159
▁enhance	-11.416
▁bike	-11.416
▁tee	-11.4161
think	-11.4161
▁clothing	-11.4163
▁cookie	-11.4165
▁GO	-11.4167
▁Clarke	-11.4167
▁purchased	-11.4167
▁Express	-11.417
▁childish	-11.417
▁Vanish	-11.4172
▁aid	-11.4172
▁Parker	-11.4174
▁Heart	-11.4175
AID	-11.4175
▁#	-11.4176
▁Book	-11.4176
▁pit	-11.4178
▁dating	-11.418
▁Alive	-11.4181
▁questionable	-11.4181
▁stark	-11.4182
▁astonishing	-11.4182
▁assembl	-11.4183
▁fist	-11.4183
▁/>3.	-11.4183
▁Dance	-11.4185
▁solution	-11.4185
▁HE	-11.4185
▁Bana	-11.4186
▁Line	-11.4186
▁faded	-11.4188
▁Wish	-11.4189
▁progressed	-11.419
▁km	-11.419
▁SU	-11.419
General	-11.4192
revolutionary	-11.4194
▁noise	-11.4198
usel	-11.4203
▁Sandy	-11.4207
▁misses	-11.4207
▁lifetime	-11.4207
▁Date	-11.4208
▁environmental	-11.4208
▁prof	-11.4209
thirty	-11.421
▁Goes	-11.4211
▁recommendation	-11.4212
▁hooked	-11.4212
▁ranger	-11.4212
▁chopp	-11.4212
▁Ava	-11.4214
▁Alic	-11.4215
your	-11.4217
▁ignored	-11.4219
▁realised	-11.4221
Plan	-11.4221
▁restore	-11.4223
▁sand	-11.4223
▁preced	-11.4224
▁parties	-11.4227
toxic	-11.4228
▁ignoran	-11.423
▁Living	-11.4232
▁attended	-11.4233
▁farce	-11.4234
▁Heck	-11.4235
▁spoiling	-11.4242
▁Anna	-11.4242
▁Mor	-11.4244
▁Claude	-11.4244
▁Vin	-11.4248
▁swing	-11.4248
mela	-11.4249
▁longest	-11.4253
▁Bull	-11.4253
▁weaker	-11.4266
▁Virginia	-11.427
▁slopp	-11.4273
Patric	-11.4276
Jade	-11.4278
▁bless	-11.4279
▁dish	-11.4279
▁castle	-11.4282
▁notably	-11.4291
▁Gay	-11.4293
▁reverse	-11.4293
▁Welles	-11.4299
▁answered	-11.4304
▁esc	-11.4305
▁Qua	-11.4305
communist	-11.4311
▁related	-11.4315
Mr	-11.4327
▁blowing	-11.4339
atz	-11.4357
arine	-11.4363
▁escaped	-11.4366
▁fleet	-11.4366
▁Dar	-11.4378
Uncle	-11.4383
▁overlook	-11.4388
▁pleas	-11.4397
stern	-11.4406
BLE	-11.4412
▁mall	-11.4432
▁unsu	-11.4439
▁owe	-11.4441
biography	-11.4484
▁helpful	-11.4486
▁Gore	-11.4506
▁Ten	-11.452
ldom	-11.4526
flatter	-11.454
brid	-11.4546
▁fetch	-11.462
vous	-11.4623
amil	-11.463
HOW	-11.4637
rbi	-11.4647
awful	-11.4655
▁debate	-11.4666
▁continu	-11.4689
▁operate	-11.4706
amir	-11.4721
stance	-11.4722
thful	-11.4732
▁rev	-11.4738
▁Lon	-11.4748
▁satir	-11.4759
etta	-11.4772
▁moronic	-11.4781
delic	-11.4783
ival	-11.4797
proto	-11.4819
zu	-11.4822
AST	-11.4855
write	-11.4886
▁elevate	-11.4897
▁liqu	-11.4899
▁inform	-11.4932
ronically	-11.4933
▁2005	-11.4937
▁rod	-11.4949
▁organ	-11.4963
▁Silen	-11.4971
bon	-11.5021
Momm	-11.5042
▁Comb	-11.5069
thology	-11.5076
release	-11.5134
cil	-11.5183
▁Tea	-11.519
▁Maria	-11.5202
ification	-11.5225
▁gi	-11.5236
liner	-11.5243
serving	-11.5257
formed	-11.5258
aga	-11.5263
▁mythic	-11.5268
ference	-11.5273
▁manipulati	-11.5275
acula	-11.5297
earl	-11.5298
rope	-11.5313
legal	-11.5317
***	-11.5325
▁litera	-11.533
*****	-11.5333
urgi	-11.5397
coaster	-11.5425
▁para	-11.5451
▁env	-11.5466
▁robber	-11.5474
▁Water	-11.5496
▁bullet	-11.5498
lma	-11.5503
articularly	-11.551
****	-11.5521
during	-11.5562
▁expectation	-11.5566
▁boo	-11.5573
Mission	-11.5577
▁commun	-11.5581
▁Sad	-11.5584
settl	-11.5593
cial	-11.5604
lane	-11.5611
chell	-11.5614
dile	-11.5628
nything	-11.5628
shocks	-11.5642
owned	-11.5649
▁Battle	-11.5657
eeks	-11.5666
makers	-11.5671
elling	-11.5671
▁Cro	-11.5672
▁annoy	-11.569
ounding	-11.569
ided	-11.5695
fight	-11.5698
yet	-11.5709
#	-11.5715
Bambi	-11.5715
Definitely	-11.5716
Jaws	-11.5717
Ginger	-11.5718
9/10	-11.5718
Jennifer	-11.5719
grade	-11.5719
Instead	-11.5719
Jean	-11.5719
Most	-11.5719
effect	-11.5719
girlfriend	-11.5719
James	-11.5719
average	-11.5719
Though	-11.572
documentary	-11.572
twist	-11.572
Jones	-11.572
predictable	-11.572
through	-11.572
typical	-11.572
people	-11.572
funny	-11.5721
Yet	-11.5722
Play	-11.5723
however	-11.5723
Paul	-11.5723
print	-11.5724
SPOILERS	-11.5726
▁shove	-11.5727
level	-11.5729
Jack	-11.5732
Wow	-11.5732
woman	-11.5732
loud	-11.5735
▁compell	-11.5736
▁astonish	-11.5737
cock	-11.5737
again	-11.5737
Fred	-11.574
▁(197	-11.5746
▁casual	-11.5751
▁frequent	-11.5752
kick	-11.5753
▁loyal	-11.5754
▁intend	-11.576
▁identi	-11.5761
▁pursue	-11.5762
▁inspire	-11.5764
luck	-11.5764
▁marrie	-11.5764
▁wrap	-11.5766
fair	-11.5768
Other	-11.5769
HOU	-11.5773
▁craz	-11.5773
▁Australia	-11.5773
▁numb	-11.5777
▁careful	-11.5778
orient	-11.5779
cademy	-11.5782
Too	-11.5785
along	-11.5786
▁sentiment	-11.5787
▁threat	-11.579
▁Steph	-11.579
▁select	-11.5791
▁immortal	-11.5793
peaking	-11.5793
▁specific	-11.5794
▁excess	-11.5794
▁Euro	-11.5794
▁(196	-11.5795
▁appro	-11.5795
▁(195	-11.5795
▁patron	-11.5795
^	-11.5795
▁Lynn	-11.5795
▁delusion	-11.5795
Caribbean	-11.5795
Fortunately	-11.5795
Professor	-11.5795
Technic	-11.5795
advertising	-11.5795
historic	-11.5795
indulgent	-11.5795
psychic	-11.5795
satisfied	-11.5795
▁1957	-11.5795
▁1958	-11.5795
▁1961	-11.5795
▁1974	-11.5795
▁1999	-11.5795
▁2004	-11.5795
▁AGAIN	-11.5795
▁Alonzo	-11.5795
▁Bulgarian	-11.5795
▁Carpenter	-11.5795
▁Century	-11.5795
▁Dundee	-11.5795
▁Dwarf	-11.5795
▁Effect	-11.5795
▁Englund	-11.5795
▁Enterprise	-11.5795
▁Field	-11.5795
▁Fiennes	-11.5795
▁Galileo	-11.5795
▁Government	-11.5795
▁Havilland	-11.5795
▁Horrible	-11.5795
▁Humph	-11.5795
▁Hungarian	-11.5795
▁IMDB	-11.5795
▁Impossible	-11.5795
▁Joaqui	-11.5795
▁Kapoor	-11.5795
▁Limited	-11.5795
▁McCarthy	-11.5795
▁McDowell	-11.5795
▁Mifune	-11.5795
▁Moorwen	-11.5795
▁NOTHING	-11.5795
▁Nastassja	-11.5795
▁Nearly	-11.5795
▁Olivi	-11.5795
▁Petunia	-11.5795
▁Quentin	-11.5795
▁Rhames	-11.5795
▁Sadako	-11.5795
▁Sarandon	-11.5795
▁Saskia	-11.5795
▁Schumann	-11.5795
▁Sinclair	-11.5795
▁Square	-11.5795
▁Tamblyn	-11.5795
▁Tubbs	-11.5795
▁Wynorski	-11.5795
▁Yeung	-11.5795
▁ZERO	-11.5795
▁aesthetic	-11.5795
▁analysis	-11.5795
▁appalling	-11.5795
▁applaud	-11.5795
▁architect	-11.5795
▁baggage	-11.5795
▁befriend	-11.5795
▁boundaries	-11.5795
▁breathtaking	-11.5795
▁brilliance	-11.5795
▁citizens	-11.5795
▁cliff	-11.5795
▁compensate	-11.5795
▁complement	-11.5795
▁controversial	-11.5795
▁crucial	-11.5795
▁depriv	-11.5795
▁desperation	-11.5795
▁dynamic	-11.5795
▁efficient	-11.5795
▁eloquen	-11.5795
▁emphasis	-11.5795
▁entitled	-11.5795
▁explosive	-11.5795
▁fraternit	-11.5795
▁frustration	-11.5795
▁fundamental	-11.5795
▁gradually	-11.5795
▁gruff	-11.5795
▁horizon	-11.5795
▁horrid	-11.5795
▁implication	-11.5795
▁incompetent	-11.5795
▁infuriating	-11.5795
▁innovative	-11.5795
▁integrity	-11.5795
▁jacket	-11.5795
▁mesmerized	-11.5795
▁miracle	-11.5795
▁monologue	-11.5795
▁morbid	-11.5795
▁mundane	-11.5795
▁nostalgia	-11.5795
▁obstacle	-11.5795
▁pattern	-11.5795
▁paycheck	-11.5795
▁plausible	-11.5795
▁pompous	-11.5795
▁predicament	-11.5795
▁pregnancy	-11.5795
▁prostitution	-11.5795
▁psychology	-11.5795
▁redundant	-11.5795
▁scathing	-11.5795
▁servant	-11.5795
▁sibling	-11.5795
▁silence	-11.5795
▁simplistic	-11.5795
▁simultaneous	-11.5795
▁sleaze	-11.5795
▁slept	-11.5795
▁spectacle	-11.5795
▁splatter	-11.5795
▁stunned	-11.5795
▁sublime	-11.5795
▁swimming	-11.5795
▁thieves	-11.5795
▁tunnel	-11.5795
▁vacation	-11.5795
▁vigilante	-11.5795
▁wrestling	-11.5795
▁yesterday	-11.5795
Extreme	-11.5795
▁1/2	-11.5795
▁1997	-11.5795
▁Anniston	-11.5795
▁Beauty	-11.5795
▁Dillon	-11.5795
▁Maynard	-11.5795
▁Minghella	-11.5795
▁SNL	-11.5795
▁Tyrone	-11.5795
▁Venom	-11.5795
▁Voight	-11.5795
▁alternate	-11.5795
▁companion	-11.5795
▁delicious	-11.5795
▁deranged	-11.5795
▁dignity	-11.5795
▁discern	-11.5795
▁escapis	-11.5795
▁feeble	-11.5795
▁gloss	-11.5795
▁groan	-11.5795
▁hollow	-11.5795
▁inadequate	-11.5795
▁knife	-11.5795
▁ocean	-11.5795
▁retriev	-11.5795
▁session	-11.5795
▁squeez	-11.5795
▁suprem	-11.5795
▁surpass	-11.5795
▁taboo	-11.5795
Toolbox	-11.5795
urrender	-11.5795
▁/>4/10	-11.5795
▁Brazilian	-11.5795
▁Catholic	-11.5795
▁Conquer	-11.5795
▁Dallas	-11.5795
▁Fulci	-11.5795
▁Jeremy	-11.5795
▁Legend	-11.5795
▁Major	-11.5795
▁NBC	-11.5795
▁Pinhead	-11.5795
▁Sleep	-11.5795
▁Stories	-11.5795
▁View	-11.5795
▁divorce	-11.5795
▁fodder	-11.5795
▁heartwarming	-11.5795
▁insurance	-11.5795
▁repair	-11.5795
▁rotten	-11.5795
▁vocal	-11.5795
▁wilderness	-11.5795
▁wolf	-11.5795
▁Goddard	-11.5795
▁Shawn	-11.5795
▁Waits	-11.5795
▁Would	-11.5795
▁coffin	-11.5795
▁Hudson	-11.5795
▁Scrapp	-11.5795
▁asylum	-11.5795
▁dubbing	-11.5795
▁eager	-11.5795
▁interrogat	-11.5795
▁miserable	-11.5795
▁molest	-11.5795
▁predator	-11.5795
▁Perkins	-11.5795
▁Troma	-11.5795
▁flag	-11.5795
▁southern	-11.5795
▁surf	-11.5795
Robocop	-11.5795
emesis	-11.5795
▁Alexander	-11.5795
▁Daughter	-11.5795
▁Sawyer	-11.5795
▁fluid	-11.5795
Desmond	-11.5795
▁Berlin	-11.5795
▁Negr	-11.5795
esquire	-11.5795
hazard	-11.5795
talwart	-11.5795
▁Gwen	-11.5795
▁blip	-11.5795
▁Gould	-11.5795
▁invented	-11.5795
▁region	-11.5795
▁Possibly	-11.5795
.5/10	-11.5795
▁Enid	-11.5795
▁ALL	-11.5795
▁dropped	-11.5795
▁immers	-11.5795
▁motel	-11.5795
▁waitress	-11.5795
Revenge	-11.5795
▁Reilly	-11.5795
▁poem	-11.5795
▁demented	-11.5795
▁strand	-11.5795
▁Mamet	-11.5795
▁Royal	-11.5795
▁heaven	-11.5796
▁mutant	-11.5796
▁monitor	-11.5796
Suhani	-11.5796
Tomorrow	-11.5796
▁hesitate	-11.5796
▁tolerance	-11.5796
▁Train	-11.5796
▁ordeal	-11.5796
▁mannerisms	-11.5796
onauts	-11.5796
▁Troy	-11.5796
▁assured	-11.5796
▁Natali	-11.5796
▁shelf	-11.5796
▁Streetfighter	-11.5796
▁Therefore	-11.5796
▁composition	-11.5796
▁Command	-11.5796
▁Varsi	-11.5796
▁presume	-11.5796
▁shortcomings	-11.5796
▁carrot	-11.5796
▁gospel	-11.5796
▁championship	-11.5796
▁bathroom	-11.5796
▁gym	-11.5796
▁idol	-11.5796
▁robbed	-11.5796
athon	-11.5796
▁task	-11.5796
▁Vitt	-11.5796
▁south	-11.5796
Juhi	-11.5796
Hannah	-11.5796
▁pimp	-11.5796
Razzie	-11.5796
▁greed	-11.5796
▁orange	-11.5796
▁Meyer	-11.5796
▁Walker	-11.5796
▁STAR	-11.5796
▁neighborhood	-11.5796
▁Robbie	-11.5796
▁Wonder	-11.5796
▁limitations	-11.5796
▁Fire	-11.5796
▁buzz	-11.5796
▁immatur	-11.5796
▁Hopefully	-11.5796
▁Paramount	-11.5796
▁showcase	-11.5796
▁Mickey	-11.5796
▁Pepper	-11.5796
▁borrow	-11.5796
▁giggle	-11.5796
▁Dozen	-11.5797
▁Barker	-11.5797
▁screwball	-11.5797
▁overused	-11.5797
▁Glenn	-11.5797
▁pole	-11.5797
▁Trav	-11.5797
▁1934	-11.5797
▁competition	-11.5797
shatter	-11.5797
▁uh	-11.5797
OST	-11.5797
▁lodge	-11.5797
▁resistance	-11.5797
▁sweep	-11.5797
▁garden	-11.5797
▁angel	-11.5797
▁yellow	-11.5797
▁arrang	-11.5797
Wolf	-11.5797
▁Tune	-11.5797
▁Shark	-11.5797
▁Atlant	-11.5797
▁Hellboy	-11.5797
▁rocket	-11.5797
Kingpin	-11.5797
▁Jet	-11.5797
▁Trip	-11.5797
▁resist	-11.5797
▁Milian	-11.5798
▁Doyle	-11.5798
Madame	-11.5798
▁occurred	-11.5798
▁Broke	-11.5798
▁marvel	-11.5798
▁Bugs	-11.5798
▁Jagger	-11.5798
▁airport	-11.5798
▁aggressive	-11.5798
▁Suari	-11.5798
▁incest	-11.5798
insky	-11.5798
▁luna	-11.5798
Joyce	-11.5798
▁cringing	-11.5798
▁sixties	-11.5798
▁dismiss	-11.5799
▁Sharon	-11.5799
▁Army	-11.5799
▁kung	-11.5799
ogether	-11.5799
▁lens	-11.5799
▁Greg	-11.5799
▁collective	-11.5799
▁obsessive	-11.5799
▁selection	-11.5799
▁cried	-11.5799
▁Lauri	-11.5799
racial	-11.5799
▁disease	-11.58
▁1942	-11.58
▁Prime	-11.58
▁absent	-11.58
▁rude	-11.58
▁limb	-11.58
▁radiat	-11.58
grunt	-11.58
▁Gregg	-11.58
▁thick	-11.5801
▁controlled	-11.5801
▁Claus	-11.5801
▁Winter	-11.5801
▁alluring	-11.5801
▁unfair	-11.5801
▁FUN	-11.5801
MENT	-11.5801
abundan	-11.5802
jury	-11.5802
▁comfortable	-11.5802
▁property	-11.5802
▁boob	-11.5802
▁climate	-11.5802
▁quest	-11.5802
▁apply	-11.5802
▁Garland	-11.5802
▁authenticity	-11.5802
Wife	-11.5802
▁Candy	-11.5802
▁Glor	-11.5803
▁Josie	-11.5803
▁Taka	-11.5803
▁Powell	-11.5803
▁Danger	-11.5803
▁saga	-11.5803
▁acid	-11.5803
▁ripoff	-11.5803
▁opt	-11.5804
▁bittersweet	-11.5804
▁substantial	-11.5804
▁Bound	-11.5804
▁earnest	-11.5804
worm	-11.5804
▁Shame	-11.5804
Elvis	-11.5804
▁Giant	-11.5805
▁reflection	-11.5805
▁muff	-11.5805
▁Lawless	-11.5805
aaaa	-11.5805
▁Oldman	-11.5805
plex	-11.5806
▁spice	-11.5806
▁minus	-11.5806
Sinc	-11.5806
▁Carter	-11.5806
▁storm	-11.5807
▁Arkin	-11.5807
▁wow	-11.5807
▁hail	-11.5808
▁plight	-11.5808
▁FX	-11.5808
▁overdone	-11.5808
▁max	-11.5809
▁Golden	-11.5809
▁tv	-11.581
▁mythology	-11.5811
▁Lacy	-11.5812
▁mono	-11.5812
▁composer	-11.5813
▁Brod	-11.5813
▁Trin	-11.5813
▁stack	-11.5813
▁Gina	-11.5814
▁nun	-11.5814
▁panic	-11.5814
▁Rather	-11.5815
▁publicity	-11.5815
▁tolerate	-11.5815
▁chest	-11.5815
LIT	-11.5816
▁Gaur	-11.5818
▁Madhuri	-11.5818
▁Menace	-11.5818
▁Follow	-11.5818
Glen	-11.5819
▁cowboy	-11.5819
▁brass	-11.582
▁Lila	-11.5821
▁wannabe	-11.5821
evil	-11.5821
▁1947	-11.5821
▁Ever	-11.5822
▁Korean	-11.5822
▁invaded	-11.5824
▁code	-11.5825
arcade	-11.5825
▁barf	-11.5826
▁extended	-11.5826
▁choppy	-11.5826
goers	-11.5826
ancy	-11.5826
▁hap	-11.5826
▁mummi	-11.5826
▁Williamson	-11.5827
▁overrated	-11.5827
▁businessman	-11.5828
▁daytime	-11.5828
▁crashes	-11.5828
▁pursued	-11.5829
▁sale	-11.583
Tom	-11.5831
▁entirety	-11.5832
▁Excellent	-11.5833
▁Arnold	-11.5833
▁Pierre	-11.5833
▁Camp	-11.5833
▁tolerable	-11.5834
Indeed	-11.5834
▁Dami	-11.5834
▁Stop	-11.5835
rjee	-11.5835
▁invited	-11.5835
▁Drive	-11.5836
▁useful	-11.5836
1986	-11.5837
orious	-11.5837
▁Axe	-11.5837
▁21	-11.5838
▁seriousness	-11.5838
Jungle	-11.5839
▁casually	-11.584
ightmare	-11.5841
▁annoyed	-11.5843
▁remove	-11.5844
▁bully	-11.5845
▁preachy	-11.5845
akot	-11.5847
▁pie	-11.5852
▁outlaw	-11.5854
▁fourth	-11.5855
▁Ark	-11.5857
▁accomplished	-11.586
▁MP	-11.5861
▁haunted	-11.5861
▁Indiana	-11.5861
▁arch	-11.5863
▁Myers	-11.5864
aux	-11.5865
▁lengthy	-11.5869
▁Kane	-11.587
▁Made	-11.5871
▁/>2.	-11.5873
▁MA	-11.5874
/3	-11.5875
Sinbad	-11.5877
▁Temp	-11.5879
▁duel	-11.588
▁grabb	-11.5881
▁Jar	-11.5882
▁counter	-11.5883
taire	-11.5883
▁abused	-11.5885
▁Buy	-11.5886
▁glorif	-11.5895
▁factory	-11.5899
▁setup	-11.5901
▁labor	-11.5902
▁Verne	-11.5903
▁tit	-11.5908
▁Finn	-11.5908
▁signal	-11.5909
▁tripe	-11.591
▁roller	-11.591
▁Luci	-11.5912
rump	-11.5912
▁Noon	-11.5913
Ron	-11.5913
▁Aga	-11.5914
▁snapp	-11.5915
▁salt	-11.5916
▁jet	-11.592
▁Inter	-11.5926
lted	-11.5933
▁wrapp	-11.5941
▁Kill	-11.5942
Tales	-11.5946
YES	-11.5951
▁Conte	-11.5954
pton	-11.598
lec	-11.5989
▁Top	-11.6016
▁chronicl	-11.6019
▁Rain	-11.6023
▁wink	-11.6025
▁Seek	-11.6029
terling	-11.6034
leading	-11.6041
▁digress	-11.6084
▁seal	-11.61
▁defie	-11.61
▁admitted	-11.6111
haus	-11.6111
Flash	-11.6112
▁Op	-11.6118
▁Goth	-11.6128
ANG	-11.6146
giv	-11.6178
▁DE	-11.6185
bbie	-11.6187
▁Thor	-11.6187
▁Nig	-11.6195
▁logical	-11.6208
wal	-11.6269
▁dope	-11.6276
▁Kil	-11.6296
▁Vol	-11.6296
▁epi	-11.6302
▁Rollin	-11.631
▁dragg	-11.6324
ESS	-11.6325
Cool	-11.6331
▁Oz	-11.6354
thirsty	-11.6355
▁Fan	-11.6364
▁tease	-11.6371
lways	-11.6398
▁Bobb	-11.6413
▁wishe	-11.6416
▁obligat	-11.6434
Babe	-11.6449
Mich	-11.6453
Croc	-11.6517
▁Basi	-11.6538
▁skirt	-11.6549
▁suitabl	-11.6554
▁lac	-11.6581
▁Gor	-11.6694
Connell	-11.6704
▁acknowledge	-11.6705
▁admir	-11.6711
▁cease	-11.6745
▁Sheri	-11.6778
▁extraordinar	-11.6789
odd	-11.681
cau	-11.6815
42	-11.6823
nails	-11.6847
▁wig	-11.688
rlock	-11.6905
fact	-11.6907
BY	-11.691
motivated	-11.695
▁Mari	-11.6955
Item	-11.6988
▁argu	-11.7042
Rated	-11.7098
HIS	-11.7109
▁resid	-11.7122
OUR	-11.7155
▁frat	-11.7178
▁valu	-11.7215
▁copie	-11.7219
ooooo	-11.724
gna	-11.7247
▁revolv	-11.7319
▁invade	-11.7329
▁Kara	-11.7359
▁Merri	-11.7375
▁poet	-11.7414
Pi	-11.7427
Produce	-11.743
astly	-11.7443
▁graduate	-11.7449
ARE	-11.7458
▁participate	-11.7492
▁Phillip	-11.7498
▁ensue	-11.7498
▁explosion	-11.75
▁Thing	-11.7502
▁monk	-11.7502
cross	-11.7524
illion	-11.7539
▁bug	-11.7541
▁capital	-11.7569
▁vibra	-11.7579
lade	-11.7579
▁Virgin	-11.7595
roid	-11.7599
▁captur	-11.7607
▁indicat	-11.7631
▁Clar	-11.7633
scene	-11.7659
▁describ	-11.7669
▁Rud	-11.77
▁revolution	-11.7701
bbed	-11.7706
solution	-11.771
search	-11.7715
Character	-11.7716
Finally	-11.7716
Murder	-11.7717
Judy	-11.7717
Second	-11.7717
Jimmy	-11.7718
Emmanuelle	-11.7718
modern	-11.7718
Okay	-11.7718
Robin	-11.7719
Guy	-11.7719
Godzilla	-11.7719
driven	-11.7719
creative	-11.7719
Where	-11.7719
More	-11.7719
regard	-11.7719
New	-11.7719
Richard	-11.772
important	-11.772
Alex	-11.772
market	-11.772
Eye	-11.772
perfect	-11.772
production	-11.772
wife	-11.772
DVD	-11.772
family	-11.772
child	-11.772
trash	-11.772
character	-11.772
wanted	-11.772
▁patien	-11.772
great	-11.772
naked	-11.7721
claim	-11.7721
nothing	-11.7721
color	-11.7722
Dawn	-11.7723
despi	-11.7723
change	-11.7723
sequel	-11.7724
please	-11.7725
▁replac	-11.7726
Set	-11.7731
18	-11.7731
▁overwhelm	-11.7733
▁frighten	-11.7735
▁Deb	-11.7736
box	-11.7738
keep	-11.7743
erotic	-11.7749
▁polish	-11.7749
Lot	-11.775
dead	-11.7752
▁Final	-11.7752
Tony	-11.7755
▁SEE	-11.7757
soft	-11.776
stage	-11.776
fighter	-11.7763
▁tire	-11.7764
tribute	-11.7765
▁Russia	-11.7776
Sure	-11.7777
Sex	-11.7778
BODY	-11.7784
▁dat	-11.7784
nvasion	-11.7787
▁profession	-11.7787
▁magn	-11.7789
raphic	-11.7789
▁Amaz	-11.7791
aniacs	-11.7792
▁populat	-11.7792
ursuit	-11.7793
▁acquaint	-11.7794
▁Hunt	-11.7794
▁Wong	-11.7794
clusion	-11.7794
xploitation	-11.7794
▁advent	-11.7795
▁champion	-11.7795
halleng	-11.7795
▁August	-11.7795
▁Calderone	-11.7795
▁Maggie	-11.7795
▁archetyp	-11.7795
▁melancholy	-11.7795
▁skull	-11.7795
=	-11.7795
Beckinsale	-11.7795
Bujalski	-11.7795
Diamond	-11.7795
Kickboxer	-11.7795
LAND	-11.7795
Production	-11.7795
Unleashed	-11.7795
assignment	-11.7795
gnacio	-11.7795
heterosexual	-11.7795
interrupted	-11.7795
omaniac	-11.7795
phobic	-11.7795
simplified	-11.7795
▁1952	-11.7795
▁1993	-11.7795
▁2006	-11.7795
▁2007	-11.7795
▁2:45	-11.7795
▁Abhishek	-11.7795
▁Abigail	-11.7795
▁Arquette	-11.7795
▁Bachchan	-11.7795
▁Benigni	-11.7795
▁Blackbeard	-11.7795
▁Buttermaker	-11.7795
▁Claudius	-11.7795
▁Colossus	-11.7795
▁Commission	-11.7795
▁Costello	-11.7795
▁DeNiro	-11.7795
▁Dietrich	-11.7795
▁Dixie	-11.7795
▁Eleniak	-11.7795
▁Exorcist	-11.7795
▁Filipino	-11.7795
▁Galactica	-11.7795
▁Graboid	-11.7795
▁Gremlin	-11.7795
▁Hathaway	-11.7795
▁Jabez	-11.7795
▁Kubicek	-11.7795
▁Kutcher	-11.7795
▁Labyrinth	-11.7795
▁Lindsey	-11.7795
▁Lopez	-11.7795
▁Margaret	-11.7795
▁Multipl	-11.7795
▁Muslim	-11.7795
▁Netflix	-11.7795
▁PLEASE	-11.7795
▁Pacific	-11.7795
▁Papillon	-11.7795
▁Plenty	-11.7795
▁Recommended	-11.7795
▁Republic	-11.7795
▁Revolution	-11.7795
▁STYLE	-11.7795
▁Schwarzenegger	-11.7795
▁Shakti	-11.7795
▁Simpson	-11.7795
▁Snipes	-11.7795
▁Soderberg	-11.7795
▁Sophie	-11.7795
▁Strasberg	-11.7795
▁Valentine	-11.7795
▁Voorhees	-11.7795
▁Written	-11.7795
▁Yankee	-11.7795
▁abortion	-11.7795
▁abysmal	-11.7795
▁activities	-11.7795
▁activity	-11.7795
▁allegory	-11.7795
▁ambition	-11.7795
▁assumption	-11.7795
▁bucket	-11.7795
▁chauffeur	-11.7795
▁cheerleader	-11.7795
▁cohesive	-11.7795
▁concession	-11.7795
▁conclude	-11.7795
▁corpse	-11.7795
▁crucif	-11.7795
▁cyborg	-11.7795
▁dazzling	-11.7795
▁destination	-11.7795
▁dictator	-11.7795
▁diplomat	-11.7795
▁disastrous	-11.7795
▁disclose	-11.7795
▁drastic	-11.7795
▁economy	-11.7795
▁embarrassment	-11.7795
▁emphasize	-11.7795
▁enthusiasm	-11.7795
▁escapade	-11.7795
▁evocative	-11.7795
▁executive	-11.7795
▁fascinated	-11.7795
▁fracture	-11.7795
▁ghetto	-11.7795
▁gloomy	-11.7795
▁harassment	-11.7795
▁hypnosis	-11.7795
▁inconsistent	-11.7795
▁intimacy	-11.7795
▁irreverent	-11.7795
▁leprechaun	-11.7795
▁liberation	-11.7795
▁lovable	-11.7795
▁matinée	-11.7795
▁miniseries	-11.7795
▁narcissist	-11.7795
▁necessit	-11.7795
▁nutshell	-11.7795
▁observation	-11.7795
▁occult	-11.7795
▁paranoid	-11.7795
▁participants	-11.7795
▁percepti	-11.7795
▁popcorn	-11.7795
▁precocious	-11.7795
▁premiere	-11.7795
▁preposterous	-11.7795
▁prequel	-11.7795
▁racism	-11.7795
▁recycle	-11.7795
▁resurrect	-11.7795
▁rhythm	-11.7795
▁sarcasm	-11.7795
▁scarier	-11.7795
▁schlock	-11.7795
▁sensitivity	-11.7795
▁shield	-11.7795
▁silliness	-11.7795
▁soprano	-11.7795
▁splendid	-11.7795
▁squander	-11.7795
▁stilted	-11.7795
▁suffice	-11.7795
▁surveillance	-11.7795
▁surviving	-11.7795
▁suspicion	-11.7795
▁swallow	-11.7795
▁thirteen	-11.7795
▁triangle	-11.7795
▁versatile	-11.7795
▁vessel	-11.7795
▁volcan	-11.7795
Casablanca	-11.7795
xhibit	-11.7795
▁1990	-11.7795
▁BORING	-11.7795
▁DEAD	-11.7795
▁Dudley	-11.7795
▁Elliot	-11.7795
▁IMAX	-11.7795
▁KFH	-11.7795
▁Lampoon	-11.7795
▁Rebecca	-11.7795
▁Shirley	-11.7795
▁Simmons	-11.7795
▁accompany	-11.7795
▁amusement	-11.7795
▁calculat	-11.7795
▁clinic	-11.7795
▁companies	-11.7795
▁compilation	-11.7795
▁contrivances	-11.7795
▁crisis	-11.7795
▁enlist	-11.7795
▁explicit	-11.7795
▁exquisite	-11.7795
▁frantic	-11.7795
▁glamor	-11.7795
▁gruesome	-11.7795
▁humiliat	-11.7795
▁infinite	-11.7795
▁irrational	-11.7795
▁ominous	-11.7795
▁persecut	-11.7795
▁pianist	-11.7795
▁psyche	-11.7795
▁publish	-11.7795
▁square	-11.7795
▁subtitled	-11.7795
▁tattoo	-11.7795
▁telegraph	-11.7795
▁unsympathetic	-11.7795
▁whisper	-11.7795
LAY	-11.7795
requisite	-11.7795
▁Adrian	-11.7795
▁Adrien	-11.7795
▁Bellamy	-11.7795
▁Humbert	-11.7795
▁LOL	-11.7795
▁Lepage	-11.7795
▁Webster	-11.7795
▁chock	-11.7795
▁critter	-11.7795
▁flatmate	-11.7795
▁illogical	-11.7795
▁murky	-11.7795
▁rehash	-11.7795
▁shriek	-11.7795
▁traits	-11.7795
▁Amira	-11.7795
▁Dearest	-11.7795
▁Flesh	-11.7795
▁Jordan	-11.7795
▁Taxi	-11.7795
▁chief	-11.7795
▁click	-11.7795
▁comprehension	-11.7795
▁elicit	-11.7795
▁femme	-11.7795
▁frail	-11.7795
▁griev	-11.7795
▁honour	-11.7795
▁raid	-11.7795
▁squirm	-11.7795
▁Crosby	-11.7795
▁Swim	-11.7795
▁Wolfman	-11.7795
▁alleged	-11.7795
▁crisp	-11.7795
▁instinct	-11.7795
▁replace	-11.7795
affirm	-11.7795
▁Fiction	-11.7795
▁Kainan	-11.7795
▁Merlin	-11.7795
▁Paddy	-11.7795
▁Petersburg	-11.7795
▁Quaid	-11.7795
▁Shue	-11.7795
▁Squier	-11.7795
▁bleeding	-11.7795
▁captain	-11.7795
▁poison	-11.7795
▁recipe	-11.7795
▁/>3/10	-11.7795
▁wicked	-11.7795
▁BBC	-11.7795
▁Larry	-11.7795
▁coworker	-11.7795
▁Close	-11.7795
▁Opera	-11.7795
▁muscle	-11.7795
Sweet	-11.7795
requited	-11.7795
▁Ferrer	-11.7795
▁eliminat	-11.7795
▁flare	-11.7795
▁ooze	-11.7795
▁slapped	-11.7795
▁deadpan	-11.7795
▁skipped	-11.7795
▁smut	-11.7795
▁Iraq	-11.7795
▁Conelly	-11.7795
▁acclaim	-11.7795
▁lurk	-11.7795
▁royal	-11.7795
▁Ayres	-11.7795
▁overshadow	-11.7795
▁tailor	-11.7795
pronounce	-11.7795
▁Asoka	-11.7795
▁Porter	-11.7795
▁Preston	-11.7795
▁Shyam	-11.7795
▁Worse	-11.7795
▁Carvey	-11.7795
▁bleak	-11.7795
▁Cartman	-11.7796
▁Forrest	-11.7796
▁drill	-11.7796
▁drugged	-11.7796
ethnic	-11.7796
▁trace	-11.7796
esteem	-11.7796
igsaw	-11.7796
▁Hooker	-11.7796
▁Mannon	-11.7796
▁behold	-11.7796
▁douche	-11.7796
▁jolt	-11.7796
▁banal	-11.7796
▁agenda	-11.7796
Hercules	-11.7796
▁(1971)	-11.7796
▁vengeance	-11.7796
▁hulk	-11.7796
▁offense	-11.7796
▁Huston	-11.7796
▁milestone	-11.7796
.99	-11.7796
▁desolat	-11.7796
▁Adult	-11.7796
▁Compan	-11.7796
▁Thus	-11.7796
▁american	-11.7796
▁rousing	-11.7796
▁tasty	-11.7796
▁CIA	-11.7796
marital	-11.7796
▁Darwin	-11.7796
Griffin	-11.7796
▁darn	-11.7796
▁elaborate	-11.7796
▁literature	-11.7796
▁spouse	-11.7796
▁Shemp	-11.7796
▁locate	-11.7796
▁brown	-11.7796
▁proclaim	-11.7796
▁spinning	-11.7796
▁astounding	-11.7796
▁neurotic	-11.7796
▁Kirst	-11.7796
▁optimis	-11.7796
▁suppress	-11.7796
▁Battlestar	-11.7796
▁Fried	-11.7796
▁Cameron	-11.7796
▁trademark	-11.7796
spagh	-11.7796
raitor	-11.7796
▁Novel	-11.7796
▁uncann	-11.7796
▁district	-11.7796
▁meteor	-11.7796
▁Bird	-11.7796
▁Morris	-11.7796
▁Macroth	-11.7796
▁Antonio	-11.7796
▁1969	-11.7796
▁wizard	-11.7796
▁rail	-11.7796
▁Detective	-11.7796
samura	-11.7796
▁/>1/10	-11.7796
▁Muppet	-11.7796
▁prank	-11.7796
▁tech	-11.7796
▁detest	-11.7796
▁Steel	-11.7796
▁contrary	-11.7796
▁Absa	-11.7796
▁mistress	-11.7796
▁Fanny	-11.7796
▁Gabrielle	-11.7796
▁Ringo	-11.7796
▁Jessi	-11.7797
▁Happy	-11.7797
▁Ireland	-11.7797
▁Spoilers	-11.7797
▁fingerprints	-11.7797
▁replacement	-11.7797
▁Christina	-11.7797
▁await	-11.7797
Term	-11.7797
imposed	-11.7797
▁steer	-11.7797
▁scrape	-11.7797
▁booze	-11.7797
▁garner	-11.7797
▁wives	-11.7797
▁stirring	-11.7797
▁Jazz	-11.7797
▁staple	-11.7797
brisk	-11.7797
▁Women	-11.7797
Keith	-11.7797
▁depression	-11.7797
▁Lovecraft	-11.7797
▁flipp	-11.7797
DAY	-11.7797
▁Hogan	-11.7797
▁french	-11.7797
▁1944	-11.7797
▁dismal	-11.7797
▁adjust	-11.7797
▁conviction	-11.7797
▁loyalty	-11.7798
▁cloud	-11.7798
▁consol	-11.7798
▁midnight	-11.7798
▁Court	-11.7798
Crime	-11.7798
TWO	-11.7798
▁Morton	-11.7798
▁bloke	-11.7798
▁Pirate	-11.7798
▁Buddy	-11.7798
▁Monday	-11.7798
▁cancer	-11.7798
alyst	-11.7798
▁indoor	-11.7798
▁adhere	-11.7798
1982	-11.7798
▁constructi	-11.7798
▁Francisco	-11.7798
▁Franklin	-11.7798
▁Harlow	-11.7798
▁authorities	-11.7798
▁pirate	-11.7799
Peace	-11.7799
Creep	-11.7799
▁intoxicat	-11.7799
▁Dominic	-11.7799
▁intact	-11.7799
▁celebrities	-11.7799
▁Luke	-11.7799
▁temptation	-11.7799
▁underneath	-11.7799
▁shlock	-11.7799
▁deplo	-11.7799
▁Rydell	-11.7799
▁steel	-11.7799
▁Orville	-11.7799
▁Leigh	-11.7799
motif	-11.7799
▁defect	-11.7799
▁Walsh	-11.7799
▁ethic	-11.78
▁verge	-11.78
▁Plat	-11.78
▁Robot	-11.78
▁meanwhile	-11.78
▁missile	-11.78
▁Evan	-11.78
▁Cuba	-11.78
▁trivial	-11.78
ridge	-11.78
▁Pearl	-11.78
▁peak	-11.7801
▁announcement	-11.7801
▁snip	-11.7801
▁loop	-11.7801
▁gentleman	-11.7801
▁Peak	-11.7801
▁Stuff	-11.7802
▁Corey	-11.7802
▁infant	-11.7802
▁objective	-11.7802
▁Lifetime	-11.7802
▁Spring	-11.7802
▁cere	-11.7802
▁sitcom	-11.7802
ipher	-11.7802
▁Stacy	-11.7802
▁Ladd	-11.7802
▁Firm	-11.7802
esbian	-11.7803
▁Garner	-11.7803
▁theories	-11.7803
behaving	-11.7803
▁Monty	-11.7803
▁overdose	-11.7803
▁closeups	-11.7803
▁Cox	-11.7803
▁Caroline	-11.7803
▁awareness	-11.7803
▁Doom	-11.7804
▁99	-11.7804
▁Ness	-11.7804
▁atrocity	-11.7804
▁Columbi	-11.7804
▁translation	-11.7804
▁spring	-11.7805
▁promotion	-11.7805
▁expressive	-11.7805
▁POW	-11.7805
▁indicates	-11.7805
▁Guest	-11.7805
▁honorable	-11.7805
Faust	-11.7805
▁downhill	-11.7806
▁funding	-11.7806
▁Bogie	-11.7806
▁lighthouse	-11.7806
▁disco	-11.7806
▁Justice	-11.7806
ATE	-11.7807
▁Half	-11.7807
▁Clinton	-11.7807
▁menace	-11.7807
▁Money	-11.7807
▁Wade	-11.7808
▁stardom	-11.7808
▁princess	-11.7808
▁dv	-11.7808
ACT	-11.7808
▁article	-11.7808
▁Colman	-11.7809
▁thankless	-11.7809
▁Lock	-11.781
▁brutality	-11.781
▁Might	-11.781
▁Down	-11.7811
▁winter	-11.7812
▁Six	-11.7812
▁operating	-11.7812
▁Thora	-11.7813
illionaire	-11.7813
▁minority	-11.7814
▁reserved	-11.7814
▁2000	-11.7814
▁artwork	-11.7814
▁ramb	-11.7814
▁rig	-11.7814
▁grating	-11.7816
▁washed	-11.7816
ixon	-11.7817
▁insect	-11.7817
▁illness	-11.7817
▁billion	-11.7817
icles	-11.7817
Sorry	-11.7818
▁relieve	-11.7818
▁Tang	-11.7818
▁Luck	-11.7818
▁Nice	-11.782
IDE	-11.7821
▁fancy	-11.7821
▁crushes	-11.7821
▁scriptwriter	-11.7822
▁Came	-11.7822
▁geo	-11.7822
▁observer	-11.7822
Sasha	-11.7823
▁pier	-11.7824
▁punches	-11.7825
▁undergo	-11.7825
OUL	-11.7825
▁unreal	-11.7825
▁Russ	-11.7826
▁suggestion	-11.7826
▁Samant	-11.7827
▁#1	-11.7827
▁heels	-11.7828
▁Audr	-11.7828
▁Arle	-11.7829
▁GU	-11.7829
▁parade	-11.783
▁sane	-11.7831
▁Jule	-11.7831
ookie	-11.7832
▁brainless	-11.7834
▁moll	-11.7835
Outlander	-11.7835
esperate	-11.7836
▁weakest	-11.7837
▁Nil	-11.7838
▁dupe	-11.7843
▁facets	-11.7846
▁HG	-11.7846
imum	-11.7851
northern	-11.7851
▁bigot	-11.7853
▁Liu	-11.7853
▁jar	-11.7856
▁spout	-11.7856
Last	-11.7856
▁fling	-11.7857
▁Twee	-11.7865
▁Tai	-11.7872
omfort	-11.7873
dependent	-11.7876
▁puke	-11.7878
▁shovel	-11.7882
center	-11.7886
▁barbari	-11.7892
▁Gate	-11.7892
Needle	-11.7898
▁WIL	-11.7912
▁criticize	-11.7913
▁Kati	-11.7924
nova	-11.7929
▁burl	-11.7941
conceiv	-11.7955
ymphon	-11.7955
▁Earl	-11.7957
▁profit	-11.7959
▁variation	-11.7961
▁continual	-11.799
▁Nostr	-11.7991
▁Oma	-11.8004
Devil	-11.8006
Round	-11.8011
▁influen	-11.8012
ONE	-11.8026
Wicke	-11.8036
▁hind	-11.8084
▁Stro	-11.8085
March	-11.8096
▁imb	-11.8137
▁distribut	-11.8217
▁capabilit	-11.8232
69	-11.8282
▁dan	-11.8285
Hiro	-11.8309
AME	-11.8322
▁mop	-11.8338
▁Sanj	-11.8365
▁soooo	-11.8389
▁arc	-11.8396
▁ear	-11.84
▁deserv	-11.8421
Admittedly	-11.8439
Knowing	-11.8459
▁Kare	-11.8461
Tick	-11.8482
▁incorporat	-11.8495
Bru	-11.8563
▁organis	-11.8566
Merc	-11.8572
Luis	-11.8649
▁Chun	-11.8651
fric	-11.8716
Shane	-11.8727
▁shoe	-11.8776
Combine	-11.8829
▁Rol	-11.8833
▁rewrit	-11.8837
ssip	-11.8874
minate	-11.8939
▁experienc	-11.8942
ipped	-11.8956
OLL	-11.8961
▁elevat	-11.9013
ogg	-11.9069
ugging	-11.9105
dmittedly	-11.9107
onica	-11.913
▁stud	-11.9176
rench	-11.922
mitation	-11.9237
▁compet	-11.9293
hunting	-11.9306
▁oblig	-11.9374
▁unrele	-11.9386
Carr	-11.9394
rushes	-11.9438
uki	-11.9476
▁promo	-11.9574
▁Mank	-11.9618
hyped	-11.9625
▁evaluat	-11.9641
▁Surf	-11.9651
surprising	-11.9692
fat	-11.9816
ril	-11.9879
▁ignor	-11.9922
▁error	-11.9996
▁celeb	-12.0031
Goldi	-12.0035
▁rub	-12.0041
Brain	-12.0046
walk	-12.006
rnie	-12.0066
ttorney	-12.0078
ncient	-12.009
▁resent	-12.0091
▁chop	-12.0112
▁remov	-12.0125
laborat	-12.0131
▁improv	-12.0182
▁choos	-12.0186
▁honey	-12.0188
▁disturb	-12.0189
▁weigh	-12.0198
Sid	-12.0201
Sandr	-12.0205
bott	-12.0209
opera	-12.021
related	-12.0215
present	-12.0215
Alien	-12.0216
Special	-12.0216
Evil	-12.0216
Wild	-12.0216
Ghost	-12.0216
Something	-12.0217
Victoria	-12.0217
Break	-12.0217
True	-12.0217
Halloween	-12.0217
provok	-12.0217
Acting	-12.0217
Full	-12.0218
Worth	-12.0218
forgive	-12.0218
phone	-12.0218
Blood	-12.0218
length	-12.0218
accurate	-12.0218
Nazi	-12.0218
correct	-12.0218
House	-12.0218
birth	-12.0219
Daniel	-12.0219
machine	-12.0219
Old	-12.0219
Christopher	-12.0219
Kelly	-12.0219
Life	-12.0219
pretentious	-12.0219
personally	-12.0219
Charlie	-12.0219
street	-12.0219
subtle	-12.0219
political	-12.0219
drawn	-12.0219
Dennis	-12.0219
Scott	-12.0219
adventure	-12.0219
bomb	-12.0219
Black	-12.0219
depth	-12.0219
bottom	-12.0219
travel	-12.022
Movie	-12.022
cheek	-12.022
apparently	-12.022
surprise	-12.022
Charle	-12.022
experience	-12.022
violence	-12.022
white	-12.022
blood	-12.022
certainly	-12.022
truth	-12.022
second	-12.022
humor	-12.022
figure	-12.022
death	-12.022
seeming	-12.022
around	-12.022
Qui	-12.022
drag	-12.0221
Chris	-12.0221
Miss	-12.0221
Robert	-12.0221
felt	-12.0221
THE	-12.0222
▁cloth	-12.0223
Lady	-12.0225
novel	-12.0225
smoke	-12.0226
sorry	-12.0227
Look	-12.0228
matter	-12.0228
Kath	-12.0229
catch	-12.023
moral	-12.023
fiction	-12.023
▁(198	-12.023
course	-12.0231
▁civil	-12.0237
duced	-12.024
arlene	-12.0241
amour	-12.0241
▁affection	-12.0245
▁extend	-12.0251
▁expos	-12.0253
achiev	-12.0253
▁immediate	-12.0254
efer	-12.0256
obscur	-12.0272
▁spook	-12.0274
stereotyp	-12.0275
nthusiast	-12.0282
▁thematic	-12.0286
▁erupt	-12.0292
roadcast	-12.0292
▁repuls	-12.0293
avorite	-12.0293
▁vital	-12.0293
pressive	-12.0293
▁tendenc	-12.0294
appointed	-12.0294
▁Stock	-12.0294
▁install	-12.0294
▁mount	-12.0295
negativ	-12.0295
comprehensi	-12.0295
errific	-12.0295
Shriek	-12.0295
contradict	-12.0295
▁(194	-12.0295
▁brainwash	-12.0295
▁transcend	-12.0295
psychiatric	-12.0295
è	-12.0295
▁WITH	-12.0295
▁beneficia	-12.0295
▁judici	-12.0295
Additionally	-12.0295
Delinquen	-12.0295
Denzel	-12.0295
Gonzalo	-12.0295
Ichabod	-12.0295
Levitt	-12.0295
Locusts	-12.0295
Modigliani	-12.0295
SURVIVE	-12.0295
akuza	-12.0295
decapitation	-12.0295
imaginary	-12.0295
lphabet	-12.0295
onderkommando	-12.0295
recognizable	-12.0295
riloquist	-12.0295
rresponsible	-12.0295
	-12.0295
▁(1970)	-12.0295
▁1955	-12.0295
▁1967	-12.0295
▁1985	-12.0295
▁1995	-12.0295
▁1998	-12.0295
▁2002	-12.0295
▁2008	-12.0295
▁AHEAD	-12.0295
▁Aditya	-12.0295
▁Airplane	-12.0295
▁Aykroyd	-12.0295
▁Azumi	-12.0295
▁BLANDINGS	-12.0295
▁Balibar	-12.0295
▁Banderas	-12.0295
▁Barbeau	-12.0295
▁Beethoven	-12.0295
▁Blockbuster	-12.0295
▁Buzzi	-12.0295
▁Candela	-12.0295
▁Cenobites	-12.0295
▁Central	-12.0295
▁Cinematography	-12.0295
▁Cleopatra	-12.0295
▁Conchita	-12.0295
▁Consuela	-12.0295
▁Crazy	-12.0295
▁Crisis	-12.0295
▁Delilah	-12.0295
▁Dialogue	-12.0295
▁Eisenberg	-12.0295
▁Elektra	-12.0295
▁Emperor	-12.0295
▁Entertainment	-12.0295
▁Example	-12.0295
▁Fangoria	-12.0295
▁Felix	-12.0295
▁Fernand	-12.0295
▁Ferrari	-12.0295
▁Fletcher	-12.0295
▁Futurama	-12.0295
▁Gardenia	-12.0295
▁Gizmo	-12.0295
▁Griffith	-12.0295
▁HORRIBLE	-12.0295
▁Henriksen	-12.0295
▁Herzog	-12.0295
▁Impact	-12.0295
▁Jamaica	-12.0295
▁Jarmusch	-12.0295
▁LIFE	-12.0295
▁LaChapelle	-12.0295
▁Leatherface	-12.0295
▁Lindsay	-12.0295
▁Lithgow	-12.0295
▁Lubitsch	-12.0295
▁LucasArts	-12.0295
▁MADE	-12.0295
▁MASSACRE	-12.0295
▁McCorm	-12.0295
▁Miguel	-12.0295
▁Mircalla	-12.0295
▁Morricone	-12.0295
▁Moschin	-12.0295
▁Mukherjee	-12.0295
▁NIGHT	-12.0295
▁Orleans	-12.0295
▁Paltrow	-12.0295
▁Pantoliano	-12.0295
▁Penelope	-12.0295
▁Philippines	-12.0295
▁Phoenix	-12.0295
▁Plummer	-12.0295
▁Python	-12.0295
▁Roscoe	-12.0295
▁SFX	-12.0295
▁SOMEWHERE	-12.0295
▁Scarwid	-12.0295
▁Schwartzman	-12.0295
▁Streisand	-12.0295
▁TIME	-12.0295
▁TOTAL	-12.0295
▁TRUE	-12.0295
▁Tiffan	-12.0295
▁Visually	-12.0295
▁Voyage	-12.0295
▁WONDERFUL	-12.0295
▁Wambaugh	-12.0295
▁Whaley	-12.0295
▁Woodbine	-12.0295
▁Yuzna	-12.0295
▁academic	-12.0295
▁accuracy	-12.0295
▁activist	-12.0295
▁admission	-12.0295
▁aficionado	-12.0295
▁altogether	-12.0295
▁animators	-12.0295
▁appalled	-12.0295
▁blackmail	-12.0295
▁blink	-12.0295
▁brunette	-12.0295
▁burglar	-12.0295
▁candidate	-12.0295
▁catastrophe	-12.0295
▁chaotic	-12.0295
▁clarify	-12.0295
▁clutch	-12.0295
▁coherence	-12.0295
▁colleague	-12.0295
▁compromise	-12.0295
▁concoction	-12.0295
▁confidence	-12.0295
▁conversion	-12.0295
▁convoluted	-12.0295
▁damsel	-12.0295
▁demeanor	-12.0295
▁denouement	-12.0295
▁dictionary	-12.0295
▁disconnected	-12.0295
▁disillusion	-12.0295
▁disrespect	-12.0295
▁economic	-12.0295
▁electronic	-12.0295
▁envelope	-12.0295
▁evolve	-12.0295
▁extravaganza	-12.0295
▁fairytale	-12.0295
▁forefront	-12.0295
▁furniture	-12.0295
▁glamour	-12.0295
▁governor	-12.0295
▁greet	-12.0295
▁helicopter	-12.0295
▁hillbill	-12.0295
▁hitchhiker	-12.0295
▁housekeeper	-12.0295
▁ignite	-12.0295
▁imagining	-12.0295
▁improbable	-12.0295
▁improvisation	-12.0295
▁infiltrat	-12.0295
▁ingredients	-12.0295
▁innuendo	-12.0295
▁insignificant	-12.0295
▁instalment	-12.0295
▁insufferable	-12.0295
▁junior	-12.0295
▁lightweight	-12.0295
▁luxur	-12.0295
▁maturity	-12.0295
▁memorably	-12.0295
▁mercilessly	-12.0295
▁misfits	-12.0295
▁misguided	-12.0295
▁misogyn	-12.0295
▁montage	-12.0295
▁nihilist	-12.0295
▁nonthreatening	-12.0295
▁occurrence	-12.0295
▁opportunities	-12.0295
▁overblown	-12.0295
▁paranoia	-12.0295
▁peculiar	-12.0295
▁pedophil	-12.0295
▁philosopher	-12.0295
▁phobia	-12.0295
▁pitfalls	-12.0295
▁pizza	-12.0295
▁prestig	-12.0295
▁pretension	-12.0295
▁punctuate	-12.0295
▁puppies	-12.0295
▁rabbi	-12.0295
▁raunchy	-12.0295
▁receiving	-12.0295
▁recruit	-12.0295
▁rehearsal	-12.0295
▁reinvent	-12.0295
▁retaliation	-12.0295
▁ridicule	-12.0295
▁scarred	-12.0295
▁schedule	-12.0295
▁skyscraper	-12.0295
▁sleek	-12.0295
▁sleeve	-12.0295
▁smiling	-12.0295
▁spectator	-12.0295
▁splash	-12.0295
▁sunshine	-12.0295
▁surgery	-12.0295
▁survival	-12.0295
▁sustain	-12.0295
▁temporarily	-12.0295
▁terrain	-12.0295
▁textbook	-12.0295
▁throat	-12.0295
▁twilight	-12.0295
▁ugliness	-12.0295
▁unanswered	-12.0295
▁unappealing	-12.0295
▁uncompromising	-12.0295
▁uncontrollabl	-12.0295
▁undemanding	-12.0295
▁underdeveloped	-12.0295
▁unnerving	-12.0295
▁unnoticed	-12.0295
▁unparalleled	-12.0295
▁wretched	-12.0295
Aishwarya	-12.0295
Corregidor	-12.0295
Cyborg	-12.0295
Typical	-12.0295
▁1996	-12.0295
▁Already	-12.0295
▁Bloom	-12.0295
▁Bogdanovich	-12.0295
▁Cliff	-12.0295
▁Coscarelli	-12.0295
▁Crypt	-12.0295
▁Detroit	-12.0295
▁Easily	-12.0295
▁Fidel	-12.0295
▁Finlay	-12.0295
▁Flagg	-12.0295
▁Gibbon	-12.0295
▁Guillerm	-12.0295
▁Hanahan	-12.0295
▁HellBoy	-12.0295
▁McCoy	-12.0295
▁Problem	-12.0295
▁Stallone	-12.0295
▁anecdot	-12.0295
▁babie	-12.0295
▁bastard	-12.0295
▁blunt	-12.0295
▁counsel	-12.0295
▁crummy	-12.0295
▁declare	-12.0295
▁disgrac	-12.0295
▁dodgy	-12.0295
▁embellish	-12.0295
▁exploitative	-12.0295
▁feather	-12.0295
▁fierce	-12.0295
▁illusion	-12.0295
▁impatient	-12.0295
▁incessant	-12.0295
▁licence	-12.0295
▁meticulous	-12.0295
▁misunderstand	-12.0295
▁morph	-12.0295
▁museum	-12.0295
▁overweight	-12.0295
▁pistol	-12.0295
▁qualify	-12.0295
▁radiant	-12.0295
▁ritual	-12.0295
▁screech	-12.0295
▁smirk	-12.0295
▁stubborn	-12.0295
▁subgenre	-12.0295
▁surgical	-12.0295
▁swamp	-12.0295
▁thumb	-12.0295
▁undeniably	-12.0295
▁unknowing	-12.0295
▁unsatisfying	-12.0295
▁visceral	-12.0295
▁vomit	-12.0295
ACE	-12.0295
ontaine	-12.0295
|	-12.0295
▁/>10/10	-12.0295
▁Abandon	-12.0295
▁Actress	-12.0295
▁Agutter	-12.0295
▁Bounty	-12.0295
▁Eileen	-12.0295
▁Epoch	-12.0295
▁Giallo	-12.0295
▁Hershey	-12.0295
▁Houston	-12.0295
▁Landau	-12.0295
▁Lantern	-12.0295
▁Outstanding	-12.0295
▁POV	-12.0295
▁Raimi	-12.0295
▁Savoir	-12.0295
▁Shriekers	-12.0295
▁Svenson	-12.0295
▁Sylv	-12.0295
▁Trust	-12.0295
▁Writer	-12.0295
▁allusions	-12.0295
▁brawl	-12.0295
▁crotch	-12.0295
▁destiny	-12.0295
▁emote	-12.0295
▁giallo	-12.0295
▁groundbreaking	-12.0295
▁infected	-12.0295
▁injured	-12.0295
▁judgment	-12.0295
▁obtain	-12.0295
▁oneself	-12.0295
▁panache	-12.0295
▁pumping	-12.0295
▁subdued	-12.0295
▁uncre	-12.0295
▁uninspiring	-12.0295
▁unwitting	-12.0295
▁warfare	-12.0295
▁zillion	-12.0295
bourne	-12.0295
narchy	-12.0295
▁Arcand	-12.0295
▁Patang	-12.0295
▁Slater	-12.0295
▁Slither	-12.0295
▁Tramp	-12.0295
▁bemused	-12.0295
▁intrica	-12.0295
▁navigat	-12.0295
▁rifle	-12.0295
▁snob	-12.0295
▁streak	-12.0295
▁widow	-12.0295
Bujold	-12.0295
asquerad	-12.0295
▁Akash	-12.0295
▁Cotten	-12.0295
▁Ship	-12.0295
▁anticipat	-12.0295
▁drift	-12.0295
▁hunger	-12.0295
▁injustice	-12.0295
▁juice	-12.0295
▁seamless	-12.0295
▁suburb	-12.0295
▁DNA	-12.0295
▁Fahey	-12.0295
▁Seaton	-12.0295
▁chair	-12.0295
▁chemical	-12.0295
▁demise	-12.0295
▁dreck	-12.0295
▁grandeur	-12.0295
▁opulen	-12.0295
▁paddl	-12.0295
▁scraw	-12.0295
▁statistic	-12.0295
▁wimp	-12.0295
Push	-12.0295
▁Eagle	-12.0295
▁Foster	-12.0295
▁brood	-12.0295
▁cycle	-12.0295
▁heartbreaking	-12.0295
▁reckless	-12.0295
▁rehab	-12.0295
▁Birch	-12.0295
▁Glass	-12.0295
▁Hyper	-12.0295
▁Shelley	-12.0295
▁Warrant	-12.0295
▁thwart	-12.0295
▁Flower	-12.0295
▁Whir	-12.0295
▁aftermath	-12.0295
▁daft	-12.0295
▁exterior	-12.0295
▁limp	-12.0295
▁passenger	-12.0295
▁resume	-12.0295
▁tomorrow	-12.0295
▁undertones	-12.0295
▁wisdom	-12.0295
▁Hauer	-12.0295
▁Sheffer	-12.0295
▁Zeta	-12.0295
▁conduct	-12.0295
▁perpet	-12.0295
▁shoddi	-12.0295
▁Trace	-12.0295
▁anguish	-12.0295
▁immun	-12.0295
▁Fagin	-12.0295
▁grudg	-12.0295
hubby	-12.0295
▁Crane	-12.0295
▁distort	-12.0295
▁hairstyles	-12.0295
▁headache	-12.0295
▁Carrere	-12.0295
▁Finch	-12.0295
▁eyebrows	-12.0295
▁respectively	-12.0295
▁sphere	-12.0295
▁Landis	-12.0295
▁cream	-12.0295
▁salad	-12.0295
▁tepid	-12.0295
▁titillati	-12.0295
▁warrior	-12.0295
stimulat	-12.0295
▁Sonny	-12.0295
▁knee	-12.0295
▁superstitio	-12.0295
▁viewpoints	-12.0295
▁Bartel	-12.0295
▁Emma	-12.0295
▁Mortal	-12.0295
▁Hoskin	-12.0295
▁Slip	-12.0295
▁extensi	-12.0295
incarnation	-12.0295
Gerald	-12.0295
flaming	-12.0295
▁Ensler	-12.0295
▁restoration	-12.0295
▁discourag	-12.0296
▁storytelling	-12.0296
▁Javed	-12.0296
▁Quinn	-12.0296
▁interfer	-12.0296
▁orchestra	-12.0296
▁stray	-12.0296
▁Sonia	-12.0296
▁interviewees	-12.0296
▁shelter	-12.0296
▁digital	-12.0296
▁boast	-12.0296
▁osten	-12.0296
▁Morning	-12.0296
▁Salman	-12.0296
▁cuddl	-12.0296
▁deaf	-12.0296
▁rampa	-12.0296
▁Busey	-12.0296
▁gruel	-12.0296
▁inviting	-12.0296
▁Hotel	-12.0296
▁Treat	-12.0296
▁Honor	-12.0296
auteur	-12.0296
▁AMC	-12.0296
▁Kinks	-12.0296
▁spree	-12.0296
▁prophet	-12.0296
▁(1956)	-12.0296
▁roast	-12.0296
▁Reiner	-12.0296
▁Southern	-12.0296
▁romp	-12.0296
▁Hawk	-12.0296
▁civilization	-12.0296
▁4-(	-12.0296
▁transparent	-12.0296
▁Coates	-12.0296
▁horny	-12.0296
▁reprise	-12.0296
▁Nell	-12.0296
▁yawn	-12.0296
▁sweat	-12.0296
▁Madsen	-12.0296
sync	-12.0296
▁tiring	-12.0296
▁Johann	-12.0296
▁consum	-12.0296
▁sanitized	-12.0296
▁Lyon	-12.0296
▁underused	-12.0296
▁Service	-12.0296
▁SUCK	-12.0296
▁advertisement	-12.0296
▁robbing	-12.0296
fathom	-12.0296
▁(2004)	-12.0296
▁Manners	-12.0296
▁Otto	-12.0296
▁bubble	-12.0296
naughty	-12.0296
▁jaded	-12.0296
trary	-12.0296
▁arguably	-12.0296
▁squea	-12.0296
▁Duncan	-12.0296
▁Scarface	-12.0296
▁fave	-12.0296
▁Ellis	-12.0296
▁ballet	-12.0296
▁buffoon	-12.0296
▁contend	-12.0296
▁exterminat	-12.0296
▁excellence	-12.0296
▁Bubble	-12.0296
▁phenomenal	-12.0296
Animal	-12.0296
UNCH	-12.0296
▁Extras	-12.0296
▁significance	-12.0296
▁sobbing	-12.0296
▁Kern	-12.0296
Smoke	-12.0296
lumn	-12.0296
▁Terrible	-12.0296
................	-12.0296
LMN	-12.0296
▁Mormon	-12.0296
▁Valette	-12.0296
▁Saint	-12.0297
▁supermarket	-12.0297
▁Scarlet	-12.0297
▁constitute	-12.0297
▁meditati	-12.0297
▁punished	-12.0297
▁McNichol	-12.0297
▁pave	-12.0297
Shoot	-12.0297
▁sugar	-12.0297
▁turb	-12.0297
▁Gwyn	-12.0297
▁hysteri	-12.0297
oliziotteschi	-12.0297
▁civilian	-12.0297
▁venture	-12.0297
▁predictably	-12.0297
▁collaboration	-12.0297
▁Garrison	-12.0297
▁activat	-12.0297
▁Weird	-12.0297
ilitary	-12.0297
▁fantasi	-12.0297
▁spider	-12.0297
▁Swede	-12.0297
▁1936	-12.0297
▁gambl	-12.0297
▁acquaintance	-12.0297
▁Till	-12.0297
▁SciFi	-12.0298
Stray	-12.0298
modernism	-12.0298
▁Tree	-12.0298
▁Edgar	-12.0298
▁lunch	-12.0298
▁rattle	-12.0298
▁Scr	-12.0298
▁bowl	-12.0298
▁tendencies	-12.0298
▁Vid	-12.0298
▁repulsive	-12.0298
▁hammer	-12.0298
▁vitality	-12.0298
▁hostess	-12.0298
Laurel	-12.0298
▁Egg	-12.0298
▁orphanage	-12.0298
engeance	-12.0298
▁fabricated	-12.0298
▁Parkins	-12.0298
▁ballistic	-12.0298
▁bench	-12.0298
▁botch	-12.0298
▁Bravo	-12.0299
▁Hamp	-12.0299
RENC	-12.0299
▁hallway	-12.0299
▁lightning	-12.0299
▁Greenlight	-12.0299
▁rogue	-12.0299
▁Runner	-12.0299
▁Bacon	-12.0299
▁hostile	-12.0299
66"	-12.0299
▁apple	-12.0299
▁duration	-12.0299
▁Bennet	-12.0299
▁Credi	-12.0299
▁launch	-12.0299
▁Gray	-12.0299
▁Kind	-12.0299
▁duties	-12.0299
▁mentor	-12.0299
▁metalhead	-12.03
▁immortality	-12.03
▁feline	-12.03
▁moralizing	-12.03
▁Likewise	-12.03
▁Geoff	-12.03
▁violat	-12.03
▁revive	-12.03
▁1943	-12.03
▁1932	-12.03
▁underworld	-12.03
▁pawn	-12.03
▁Elder	-12.03
▁intentionally	-12.03
▁percentage	-12.03
OOM	-12.03
hhh	-12.03
▁Single	-12.03
▁lords	-12.0301
Toole	-12.0301
merica	-12.0301
▁Kristel	-12.0301
▁collaborator	-12.0301
▁electricity	-12.0301
▁Jaden	-12.0301
▁rag	-12.0301
▁classroom	-12.0301
glued	-12.0301
▁Mouse	-12.0301
▁plum	-12.0301
▁recite	-12.0301
▁Lauren	-12.0301
▁progressive	-12.0302
animate	-12.0302
▁slack	-12.0302
▁Showtime	-12.0302
▁commendabl	-12.0302
▁expens	-12.0302
▁soph	-12.0302
▁possibilities	-12.0302
wenties	-12.0303
smack	-12.0303
▁superstar	-12.0303
ovich	-12.0303
▁50%	-12.0303
▁fluent	-12.0303
▁Fawn	-12.0303
▁Stanton	-12.0303
▁export	-12.0303
▁distraction	-12.0303
▁restrict	-12.0303
xactly	-12.0303
▁LeMa	-12.0303
▁Cube	-12.0303
▁slant	-12.0304
acabre	-12.0304
▁Tomlin	-12.0304
▁Lohan	-12.0304
▁TOO	-12.0304
▁eighties	-12.0304
▁undertake	-12.0304
▁shark	-12.0305
▁Doug	-12.0305
▁Room	-12.0305
▁Coco	-12.0305
▁Lodge	-12.0305
▁funded	-12.0306
▁bury	-12.0306
▁exile	-12.0306
Cheap	-12.0307
Among	-12.0307
▁mutate	-12.0308
▁Price	-12.0308
▁foil	-12.0308
▁Yee	-12.0308
lyph	-12.0308
enthusiastic	-12.0309
▁Remy	-12.0309
arpool	-12.031
▁Indig	-12.0311
▁laser	-12.0311
▁dart	-12.0311
▁wack	-12.0312
▁erect	-12.0312
▁vary	-12.0313
▁freeze	-12.0313
▁Rutg	-12.0316
▁lick	-12.0316
▁Feel	-12.0316
▁canoe	-12.0318
▁Ajit	-12.0318
▁futil	-12.0318
▁Singer	-12.0319
▁Stack	-12.032
MPI	-12.032
Get	-12.0323
capsul	-12.0325
petition	-12.0326
arming	-12.033
▁Plai	-12.033
oltz	-12.0334
diator	-12.0336
▁aveng	-12.0336
▁Hila	-12.0337
▁refr	-12.0338
▁excell	-12.0338
▁ancest	-12.034
▁Marrie	-12.0345
▁Regi	-12.0348
ouching	-12.0354
SEEN	-12.0358
▁criticise	-12.0363
1976	-12.0373
Mainly	-12.0376
Brenda	-12.0377
▁capitalize	-12.0378
arcel	-12.0382
Hellworld	-12.0388
rmann	-12.0391
▁prolif	-12.0395
mobile	-12.04
Mask	-12.0413
Juice	-12.0427
Blind	-12.0439
▁Besse	-12.044
Born	-12.0443
▁Derri	-12.0447
▁Remind	-12.0471
▁Pav	-12.0487
▁divide	-12.0497
TIC	-12.0506
tanic	-12.0534
Cinema	-12.0542
skimm	-12.0545
arni	-12.0559
▁nast	-12.0577
rray	-12.0612
Change	-12.0618
▁Hid	-12.0634
20,000	-12.0668
angled	-12.0693
OUT	-12.0725
avant	-12.0727
onald	-12.0745
▁Valle	-12.0746
▁McKe	-12.0759
▁Casse	-12.0829
Open	-12.0866
presumably	-12.088
▁promis	-12.0919
schmaltzy	-12.0924
▁terrorize	-12.0933
▁Vill	-12.0974
▁Merr	-12.0975
evaluate	-12.0995
▁Performance	-12.1051
▁mugg	-12.1051
▁pepp	-12.1094
▁Nev	-12.1125
Tyr	-12.1134
matically	-12.115
Leah	-12.1186
enzi	-12.1254
anni	-12.126
Rais	-12.1283
ripping	-12.1303
▁CHA	-12.1343
umpkin	-12.1428
incidental	-12.1485
attlefield	-12.1509
▁Mytholog	-12.1521
prone	-12.1551
5+	-12.1556
Manos	-12.1587
48	-12.1594
iggle	-12.1668
▁acknowledg	-12.1893
crypti	-12.1953
▁Remi	-12.209
intentional	-12.2092
arrison	-12.2143
skirts	-12.2159
▁automatic	-12.2171
▁bibl	-12.219
▁favour	-12.2223
▁Carrol	-12.2379
eleased	-12.2396
gression	-12.2439
mentality	-12.2459
quarters	-12.2571
logical	-12.2613
▁idealist	-12.2817
tribution	-12.2917
quality	-12.2965
▁Webb	-12.2984
cidentally	-12.3028
appearance	-12.3088
▁conquer	-12.3093
steps	-12.3192
ippi	-12.3225
▁politic	-12.3232
Connel	-12.325
rmless	-12.3277
▁nerve	-12.3332
fuss	-12.3449
▁combin	-12.3454
▁acqui	-12.3458
pression	-12.3518
worth	-12.3529
track	-12.3539
▁sigh	-12.3541
sembl	-12.3546
inspired	-12.3547
Excellent	-12.3547
Arnold	-12.3547
Pierre	-12.3547
Camp	-12.3547
enhance	-12.3548
Barry	-12.3549
Connor	-12.3549
phrase	-12.355
Matrix	-12.355
Monster	-12.355
sophisticated	-12.355
spoiler	-12.355
appreciated	-12.355
Could	-12.355
TCM	-12.355
Truly	-12.355
Absolute	-12.355
About	-12.355
Besides	-12.3551
Kill	-12.3551
intellectual	-12.3551
Prince	-12.3551
Lost	-12.3551
Poor	-12.3551
Susan	-12.3551
Bronson	-12.3551
Horror	-12.3551
defin	-12.3551
Rogers	-12.3551
YOU	-12.3551
nonsense	-12.3551
Cannon	-12.3551
Sometimes	-12.3551
Certainly	-12.3551
Which	-12.3551
Danny	-12.3552
actually	-12.3552
limited	-12.3552
Norma	-12.3552
grown	-12.3552
current	-12.3552
Mike	-12.3552
Brian	-12.3552
numbers	-12.3552
Russian	-12.3552
victim	-12.3552
Long	-12.3552
Edward	-12.3553
century	-12.3553
Sean	-12.3553
violent	-12.3553
Woody	-12.3553
Henry	-12.3553
possibly	-12.3553
extra	-12.3553
unfortunately	-12.3553
Christian	-12.3553
following	-12.3553
mystery	-12.3553
Peter	-12.3553
romantic	-12.3553
	-12.3553
visual	-12.3553
murder	-12.3553
Nothing	-12.3553
stupid	-12.3554
Hollywood	-12.3554
remember	-12.3554
Oscar	-12.3554
black	-12.3554
third	-12.3554
tolerable	-12.3556
Clint	-12.3557
creation	-12.3562
▁chap	-12.357
Burt	-12.3578
▁immense	-12.3586
▁frank	-12.3587
▁confuse	-12.3597
▁grocer	-12.3603
▁inexplicabl	-12.3604
▁Office	-12.3604
▁unbearabl	-12.3605
cording	-12.3607
▁familia	-12.3607
imately	-12.361
passion	-12.3614
▁eeri	-12.3615
commend	-12.3617
▁Univers	-12.362
gnore	-12.362
cognition	-12.3624
tective	-12.3625
▁convict	-12.3625
ingerprints	-12.3626
Spoiler	-12.3626
uspense	-12.3627
antastic	-12.3627
▁femini	-12.3627
▁contemp	-12.3627
nstitute	-12.3627
▁Friends	-12.3627
istrict	-12.3627
flict	-12.3628
sibilities	-12.3628
1956	-12.3628
▁Toni	-12.3628
Moderate	-12.3629
▁immigra	-12.3629
▁Morbius	-12.3629
responsi	-12.3629
▁ALERT	-12.3629
▁dysfunction	-12.3629
▁kitten	-12.3629
▁masochis	-12.3629
▁microscopic	-12.3629
▁motorcycle	-12.3629
▁polite	-12.3629
▁quintessen	-12.3629
/08	-12.3629
Clockwatcher	-12.3629
Earthquake	-12.3629
Episode	-12.3629
Errico	-12.3629
Experience	-12.3629
Gidget	-12.3629
Leprechaun	-12.3629
MMPR	-12.3629
MacKenzie	-12.3629
Mallrats	-12.3629
PORT	-12.3629
Psycho	-12.3629
Television	-12.3629
Thriller	-12.3629
WARNING	-12.3629
Widmark	-12.3629
Wierzbicki	-12.3629
bisexual	-12.3629
conceptions	-12.3629
ieutenant	-12.3629
intrusive	-12.3629
kovsky	-12.3629
lasphemy	-12.3629
matriarch	-12.3629
narchist	-12.3629
ndustrial	-12.3629
onnoisseur	-12.3629
ransformers	-12.3629
shenanigans	-12.3629
voodoo	-12.3629
yndrome	-12.3629
}	-12.3629
ó	-12.3629
ü	-12.3629
’	-12.3629
▁(1934)	-12.3629
▁1968	-12.3629
▁1977	-12.3629
▁1984	-12.3629
▁2009	-12.3629
▁AWFUL	-12.3629
▁Affleck	-12.3629
▁Amitabh	-12.3629
▁BULL	-12.3629
▁Balkan	-12.3629
▁Beijing	-12.3629
▁Birdcage	-12.3629
▁Bissell	-12.3629
▁Brueghel	-12.3629
▁Buchanan	-12.3629
▁CARRIE	-12.3629
▁CLASS	-12.3629
▁Caviezel	-12.3629
▁Cialini	-12.3629
▁Cliché	-12.3629
▁Clones	-12.3629
▁Cockney	-12.3629
▁Cruise	-12.3629
▁DAMIEN	-12.3629
▁Daphne	-12.3629
▁Daredevil	-12.3629
▁DeSalvo	-12.3629
▁Destination	-12.3629
▁Doherty	-12.3629
▁Donnadieu	-12.3629
▁Dunnock	-12.3629
▁EVIL	-12.3629
▁Edukators	-12.3629
▁Empire	-12.3629
▁Ernest	-12.3629
▁Eskimo	-12.3629
▁Essentially	-12.3629
▁FURY	-12.3629
▁Fairbanks	-12.3629
▁Goldblum	-12.3629
▁Goodfellas	-12.3629
▁Google	-12.3629
▁Guild	-12.3629
▁Gyllenhaal	-12.3629
▁HEIGHTS	-12.3629
▁Happen	-12.3629
▁Higgins	-12.3629
▁Hubbard	-12.3629
▁Hutchinson	-12.3629
▁INDIANS	-12.3629
▁Kaufman	-12.3629
▁Kinsella	-12.3629
▁LEFT	-12.3629
▁Lundgren	-12.3629
▁Mathilde	-12.3629
▁Mediocre	-12.3629
▁Netherlands	-12.3629
▁Nikita	-12.3629
▁Nowadays	-12.3629
▁OVER	-12.3629
▁Oberoi	-12.3629
▁PROSPERITY	-12.3629
▁Paradiso	-12.3629
▁Pendleton	-12.3629
▁Plague	-12.3629
▁Poitier	-12.3629
▁Portland	-12.3629
▁Pottsville	-12.3629
▁REDEEMER	-12.3629
▁Rosenbaum	-12.3629
▁Rowlands	-12.3629
▁SQUA	-12.3629
▁Salvation	-12.3629
▁Santiago	-12.3629
▁Scheider	-12.3629
▁Shaloub	-12.3629
▁Similar	-12.3629
▁Siobahn	-12.3629
▁Siodmak	-12.3629
▁Solondz	-12.3629
▁Soprano	-12.3629
▁TERRIBLE	-12.3629
▁THREE	-12.3629
▁Tarrant	-12.3629
▁Tibet	-12.3629
▁Tragedy	-12.3629
▁Trailer	-12.3629
▁Tucci	-12.3629
▁Unbelievabl	-12.3629
▁Vivian	-12.3629
▁WORLDS	-12.3629
▁WORST	-12.3629
▁Wallace	-12.3629
▁Werewolf	-12.3629
▁Wilbur	-12.3629
▁XXX	-12.3629
▁Zhivago	-12.3629
▁accompaniment	-12.3629
▁adrenaline	-12.3629
▁aggravating	-12.3629
▁amalgam	-12.3629
▁anesthesia	-12.3629
▁apologize	-12.3629
▁apologizing	-12.3629
▁arrangements	-12.3629
▁assortment	-12.3629
▁bachelor	-12.3629
▁bathtub	-12.3629
▁bikini	-12.3629
▁biopic	-12.3629
▁blissful	-12.3629
▁bodyguard	-12.3629
▁bracelet	-12.3629
▁bubbly	-12.3629
▁camaraderie	-12.3629
▁circula	-12.3629
▁claptrap	-12.3629
▁claustrophobi	-12.3629
▁cloying	-12.3629
▁clumsily	-12.3629
▁collapse	-12.3629
▁comeuppance	-12.3629
▁condescending	-12.3629
▁confiscate	-12.3629
▁conscience	-12.3629
▁cosmetic	-12.3629
▁crusade	-12.3629
▁cunning	-12.3629
▁deceptive	-12.3629
▁deprav	-12.3629
▁dexterity	-12.3629
▁discredit	-12.3629
▁dishonest	-12.3629
▁disintegrati	-12.3629
▁dissolve	-12.3629
▁distaste	-12.3629
▁docudrama	-12.3629
▁dummies	-12.3629
▁duplicate	-12.3629
▁earthquake	-12.3629
▁elusive	-12.3629
▁estimation	-12.3629
▁exclamation	-12.3629
▁flamboyant	-12.3629
▁flamethrower	-12.3629
▁flavour	-12.3629
▁fragment	-12.3629
▁frenzy	-12.3629
▁genital	-12.3629
▁grapefruit	-12.3629
▁grotesque	-12.3629
▁heffalump	-12.3629
▁hijack	-12.3629
▁hollywood	-12.3629
▁hypocritical	-12.3629
▁impersonation	-12.3629
▁incompetenc	-12.3629
▁inconsistency	-12.3629
▁infectious	-12.3629
▁interludes	-12.3629
▁irritation	-12.3629
▁juicy	-12.3629
▁knives	-12.3629
▁knuckle	-12.3629
▁locusts	-12.3629
▁loneliness	-12.3629
▁luminous	-12.3629
▁magnitude	-12.3629
▁manservant	-12.3629
▁manufactur	-12.3629
▁mediocrity	-12.3629
▁metamorphos	-12.3629
▁moustache	-12.3629
▁nebbish	-12.3629
▁nightmarish	-12.3629
▁oblivion	-12.3629
▁oblivious	-12.3629
▁paradoxical	-12.3629
▁parodies	-12.3629
▁patriarch	-12.3629
▁permission	-12.3629
▁persistent	-12.3629
▁pervasive	-12.3629
▁plodding	-12.3629
▁poachers	-12.3629
▁privilege	-12.3629
▁procedur	-12.3629
▁prodigy	-12.3629
▁puzzling	-12.3629
▁rainforest	-12.3629
▁recognis	-12.3629
▁reconstruct	-12.3629
▁rediscover	-12.3629
▁reluctant	-12.3629
▁resuscitat	-12.3629
▁revolutionaries	-12.3629
▁sandwich	-12.3629
▁scorpions	-12.3629
▁seizure	-12.3629
▁shuttlecraft	-12.3629
▁silliest	-12.3629
▁simulate	-12.3629
▁skeleton	-12.3629
▁snobbish	-12.3629
▁speculat	-12.3629
▁stylized	-12.3629
▁supplie	-12.3629
▁surgeon	-12.3629
▁synonym	-12.3629
▁tantrum	-12.3629
▁taxidermy	-12.3629
▁technician	-12.3629
▁telephone	-12.3629
▁tissue	-12.3629
▁troubling	-12.3629
▁unavailable	-12.3629
▁undetect	-12.3629
▁unpolished	-12.3629
▁valiant	-12.3629
▁versatility	-12.3629
▁vicinity	-12.3629
▁volunteer	-12.3629
▁voyage	-12.3629
▁voyeur	-12.3629
▁yield	-12.3629
Virtual	-12.3629
uerrilla	-12.3629
welfare	-12.3629
▁Arturo	-12.3629
▁BRILLIAN	-12.3629
▁Bangkok	-12.3629
▁Bergman	-12.3629
▁Carmichael	-12.3629
▁Cronenberg	-12.3629
▁Danglard	-12.3629
▁Disappointing	-12.3629
▁Dixit	-12.3629
▁Fleischer	-12.3629
▁Fowley	-12.3629
▁Infantry	-12.3629
▁JFK	-12.3629
▁Kruger	-12.3629
▁Malibu	-12.3629
▁McCaffrey	-12.3629
▁Melanie	-12.3629
▁Nabokov	-12.3629
▁Nielsen	-12.3629
▁Plotnick	-12.3629
▁Question	-12.3629
▁Radclyffe	-12.3629
▁Richter	-12.3629
▁Rosemary	-12.3629
▁Schaech	-12.3629
▁Schwentke	-12.3629
▁Search	-12.3629
▁Seymour	-12.3629
▁Thibault	-12.3629
▁Thornton	-12.3629
▁Thumper	-12.3629
▁UFO	-12.3629
▁Winninger	-12.3629
▁Zetterling	-12.3629
▁cloak	-12.3629
▁compensation	-12.3629
▁comprehend	-12.3629
▁duologue	-12.3629
▁fragil	-12.3629
▁gravity	-12.3629
▁jackhammer	-12.3629
▁jumpsuit	-12.3629
▁mismatch	-12.3629
▁oppressive	-12.3629
▁phenomenon	-12.3629
▁pollut	-12.3629
▁reconciliation	-12.3629
▁refund	-12.3629
▁register	-12.3629
▁slapdash	-12.3629
▁somersault	-12.3629
▁strateg	-12.3629
▁superintendent	-12.3629
▁synthesi	-12.3629
▁tycoon	-12.3629
▁unavoidabl	-12.3629
▁undeniable	-12.3629
Arizona	-12.3629
FRIGGIN	-12.3629
Keefe	-12.3629
Subsequent	-12.3629
convenient	-12.3629
hipwreck	-12.3629
orwegian	-12.3629
▁Brooklyn	-12.3629
▁Chevalier	-12.3629
▁Cruz	-12.3629
▁FEAR	-12.3629
▁Flashback	-12.3629
▁Henderson	-12.3629
▁Identity	-12.3629
▁Keitel	-12.3629
▁Latifa	-12.3629
▁Nukie	-12.3629
▁PART	-12.3629
▁Pichel	-12.3629
▁Rivette	-12.3629
▁SAAJAN	-12.3629
▁Stuart	-12.3629
▁WERE	-12.3629
▁cadets	-12.3629
▁diversion	-12.3629
▁egomaniac	-12.3629
▁excrement	-12.3629
▁gleeful	-12.3629
▁inventor	-12.3629
▁jeez	-12.3629
▁kooky	-12.3629
▁labour	-12.3629
▁magnetic	-12.3629
▁nuance	-12.3629
▁palatable	-12.3629
▁rebellion	-12.3629
▁skewe	-12.3629
▁sociological	-12.3629
▁tweak	-12.3629
▁vanishes	-12.3629
▁yadda	-12.3629
Cemetery	-12.3629
Sonatine	-12.3629
loathing	-12.3629
xtravagant	-12.3629
▁Bianca	-12.3629
▁Fabian	-12.3629
▁Forlani	-12.3629
▁Isabell	-12.3629
▁Machine	-12.3629
▁Oddly	-12.3629
▁PVC	-12.3629
▁Pearce	-12.3629
▁Saxon	-12.3629
▁Trans	-12.3629
▁Ulmer	-12.3629
▁ceiling	-12.3629
▁cockpit	-12.3629
▁earthworms	-12.3629
▁entries	-12.3629
▁ghoul	-12.3629
▁grammar	-12.3629
▁negotiat	-12.3629
▁palpable	-12.3629
▁skeptic	-12.3629
▁slumming	-12.3629
@	-12.3629
Method	-12.3629
precision	-12.3629
▁(1969)	-12.3629
▁Celebrit	-12.3629
▁Craven	-12.3629
▁Dudek	-12.3629
▁Franz	-12.3629
▁Lemmon	-12.3629
▁Logic	-12.3629
▁Monroe	-12.3629
▁Roberson	-12.3629
▁Sundance	-12.3629
▁Zinta	-12.3629
▁burden	-12.3629
▁coffee	-12.3629
▁comrade	-12.3629
▁conform	-12.3629
▁frolic	-12.3629
▁gorilla	-12.3629
▁illiterate	-12.3629
▁juggl	-12.3629
▁letharg	-12.3629
▁newsreel	-12.3629
▁patronising	-12.3629
▁sympathiser	-12.3629
▁Bartlow	-12.3629
▁Diaz	-12.3629
▁Efron	-12.3629
▁LIV	-12.3629
▁Lefty	-12.3629
▁Proyas	-12.3629
▁TRIA	-12.3629
▁babble	-12.3629
▁cottage	-12.3629
▁groin	-12.3629
▁sensuous	-12.3629
▁squad	-12.3629
▁yupp	-12.3629
▁Club	-12.3629
▁Columbus	-12.3629
▁DAN	-12.3629
▁Finland	-12.3629
▁LOTR	-12.3629
▁Nicholson	-12.3629
▁Palmer	-12.3629
▁Pinette	-12.3629
▁Venus	-12.3629
▁dentist	-12.3629
▁derail	-12.3629
▁ebay	-12.3629
▁heiress	-12.3629
▁immigrants	-12.3629
▁implement	-12.3629
▁lynch	-12.3629
▁potato	-12.3629
▁slashing	-12.3629
BETTER	-12.3629
owels	-12.3629
sensical	-12.3629
▁Anakin	-12.3629
▁Farrell	-12.3629
▁Hitler	-12.3629
▁Tracy	-12.3629
▁bunker	-12.3629
▁curtain	-12.3629
▁discount	-12.3629
▁illuminat	-12.3629
▁invariabl	-12.3629
▁rigid	-12.3629
▁CEO	-12.3629
▁Dinner	-12.3629
▁Gamble	-12.3629
▁POT	-12.3629
▁Twist	-12.3629
▁alleyway	-12.3629
▁embar	-12.3629
▁statue	-12.3629
▁tints	-12.3629
▁coarse	-12.3629
▁mysteries	-12.3629
▁reunion	-12.3629
▁Radio	-12.3629
▁drum	-12.3629
▁rebuild	-12.3629
▁seductive	-12.3629
▁afflict	-12.3629
▁edgy	-12.3629
▁pervert	-12.3629
▁Belasco	-12.3629
▁Klein	-12.3629
▁Octo	-12.3629
▁comprehensive	-12.3629
▁defiant	-12.3629
▁rarity	-12.3629
▁sprout	-12.3629
▁yacht	-12.3629
▁Average	-12.3629
▁Daisy	-12.3629
▁liberate	-12.3629
itarian	-12.3629
▁Corbet	-12.3629
▁superpowers	-12.3629
▁Karyo	-12.3629
▁Shim	-12.3629
▁euro	-12.3629
▁Shoes	-12.3629
▁styling	-12.3629
▁undermine	-12.3629
▁PBS	-12.3629
▁Self	-12.3629
▁Vader	-12.3629
▁Kahn	-12.3629
▁cheesi	-12.3629
▁chore	-12.3629
▁Helsing	-12.3629
▁intervene	-12.3629
▁repent	-12.3629
▁Shepard	-12.3629
▁revolt	-12.3629
smith	-12.3629
▁Smack	-12.3629
▁departing	-12.3629
▁Hartman	-12.3629
▁Kerrigan	-12.3629
▁shtick	-12.3629
▁Vernon	-12.3629
▁decay	-12.3629
▁glean	-12.3629
▁shoehorn	-12.3629
▁Lacey	-12.3629
▁defensi	-12.3629
▁denial	-12.3629
▁mourn	-12.3629
▁Fog	-12.3629
ubbies	-12.3629
▁demoraliz	-12.3629
▁impossibly	-12.3629
▁mustache	-12.3629
▁chord	-12.3629
▁(1947)	-12.3629
▁fertil	-12.3629
▁consult	-12.3629
▁zip	-12.3629
▁MIT	-12.3629
▁instruction	-12.3629
▁Trev	-12.3629
▁persua	-12.3629
Danika	-12.3629
▁frocks	-12.3629
▁baker	-12.3629
▁feroci	-12.3629
▁racing	-12.3629
▁golf	-12.3629
Sleez	-12.3629
▁Sommer	-12.3629
▁(1954)	-12.3629
▁Pesci	-12.3629
▁Daggers	-12.3629
cybers	-12.3629
▁Kingsley	-12.3629
▁Molina	-12.3629
▁confine	-12.3629
▁Altman	-12.3629
▁(1976)	-12.3629
▁audition	-12.3629
▁barren	-12.3629
▁HORR	-12.3629
▁bereft	-12.3629
▁persever	-12.3629
▁Bacc	-12.3629
Asteroid	-12.3629
▁bypass	-12.3629
▁instructor	-12.3629
▁stifl	-12.3629
lavish	-12.3629
ambigu	-12.3629
▁german	-12.3629
▁strangle	-12.3629
▁Tyson	-12.3629
▁Shearer	-12.3629
▁audaci	-12.3629
▁Nene	-12.3629
▁Planet	-12.3629
▁Bosnia	-12.3629
▁sneer	-12.3629
timid	-12.3629
▁Haunt	-12.3629
▁libid	-12.3629
▁lottery	-12.3629
▁Serra	-12.363
▁pigtail	-12.363
▁decre	-12.363
▁Horse	-12.363
VENGE	-12.363
iaboli	-12.363
ransplant	-12.363
▁Digge	-12.363
▁undeserv	-12.363
▁terminat	-12.363
▁therapist	-12.363
▁consummat	-12.363
▁passages	-12.363
▁Terl	-12.363
▁isolation	-12.363
▁mimic	-12.363
uguay	-12.363
▁Tyra	-12.363
abuki	-12.363
nitor	-12.363
▁cartel	-12.363
▁KILLE	-12.363
▁contemplat	-12.3631
\	-12.8629
á	-12.8629
>	-13.8558
£	-13.8618
~	-13.8619
{	-13.862
[	-13.8621
́	-13.8622
0	-13.8623
